{
  "version": "1.0",
  "truncation": null,
  "padding": null,
  "added_tokens": [
    {
      "id": 0,
      "content": "<unk>",
      "single_word": false,
      "lstrip": false,
      "rstrip": false,
      "normalized": false,
      "special": true
    },
    {
      "id": 1,
      "content": "<s>",
      "single_word": false,
      "lstrip": false,
      "rstrip": false,
      "normalized": false,
      "special": true
    },
    {
      "id": 2,
      "content": "</s>",
      "single_word": false,
      "lstrip": false,
      "rstrip": false,
      "normalized": false,
      "special": true
    },
    {
      "id": 3,
      "content": "<pad>",
      "single_word": false,
      "lstrip": false,
      "rstrip": false,
      "normalized": false,
      "special": true
    },
    {
      "id": 4,
      "content": "<user>",
      "single_word": false,
      "lstrip": false,
      "rstrip": false,
      "normalized": false,
      "special": true
    },
    {
      "id": 5,
      "content": "<bot>",
      "single_word": false,
      "lstrip": false,
      "rstrip": false,
      "normalized": false,
      "special": true
    }
  ],
  "normalizer": {
    "type": "Sequence",
    "normalizers": [
      {
        "type": "NFKC"
      },
      {
        "type": "Strip",
        "strip_left": true,
        "strip_right": true
      }
    ]
  },
  "pre_tokenizer": {
    "type": "ByteLevel",
    "add_prefix_space": false,
    "trim_offsets": true,
    "use_regex": true
  },
  "post_processor": null,
  "decoder": null,
  "model": {
    "type": "BPE",
    "dropout": null,
    "unk_token": "<unk>",
    "continuing_subword_prefix": null,
    "end_of_word_suffix": null,
    "fuse_unk": false,
    "byte_fallback": false,
    "ignore_merges": false,
    "vocab": {
      "<unk>": 0,
      "<s>": 1,
      "</s>": 2,
      "<pad>": 3,
      "<user>": 4,
      "<bot>": 5,
      "!": 6,
      "\"": 7,
      "#": 8,
      "$": 9,
      "%": 10,
      "&": 11,
      "'": 12,
      "(": 13,
      ")": 14,
      "*": 15,
      "+": 16,
      ",": 17,
      "-": 18,
      ".": 19,
      "/": 20,
      "0": 21,
      "1": 22,
      "2": 23,
      "3": 24,
      "4": 25,
      "5": 26,
      "6": 27,
      "7": 28,
      "8": 29,
      "9": 30,
      ":": 31,
      ";": 32,
      "<": 33,
      ">": 34,
      "?": 35,
      "A": 36,
      "B": 37,
      "C": 38,
      "D": 39,
      "E": 40,
      "F": 41,
      "G": 42,
      "H": 43,
      "I": 44,
      "J": 45,
      "K": 46,
      "L": 47,
      "M": 48,
      "N": 49,
      "O": 50,
      "P": 51,
      "Q": 52,
      "R": 53,
      "S": 54,
      "T": 55,
      "U": 56,
      "V": 57,
      "W": 58,
      "X": 59,
      "Y": 60,
      "Z": 61,
      "[": 62,
      "\\": 63,
      "]": 64,
      "_": 65,
      "`": 66,
      "a": 67,
      "b": 68,
      "c": 69,
      "d": 70,
      "e": 71,
      "f": 72,
      "g": 73,
      "h": 74,
      "i": 75,
      "j": 76,
      "k": 77,
      "l": 78,
      "m": 79,
      "n": 80,
      "o": 81,
      "p": 82,
      "q": 83,
      "r": 84,
      "s": 85,
      "t": 86,
      "u": 87,
      "v": 88,
      "w": 89,
      "x": 90,
      "y": 91,
      "z": 92,
      "|": 93,
      "~": 94,
      "¡": 95,
      "¢": 96,
      "¦": 97,
      "©": 98,
      "«": 99,
      "¬": 100,
      "°": 101,
      "±": 102,
      "¶": 103,
      "¹": 104,
      "»": 105,
      "Â": 106,
      "Ã": 107,
      "Å": 108,
      "Ì": 109,
      "â": 110,
      "ĉ": 111,
      "Ġ": 112,
      "Ģ": 113,
      "ģ": 114,
      "Ĥ": 115,
      "ĥ": 116,
      "Ħ": 117,
      "ĵ": 118,
      "ļ": 119,
      "ľ": 120,
      "Ŀ": 121,
      "ł": 122,
      "Ń": 123,
      "he": 124,
      "Ġt": 125,
      "Ġa": 126,
      "Ġs": 127,
      "Ġw": 128,
      "nd": 129,
      "Ġthe": 130,
      "ed": 131,
      "Ġand": 132,
      "Ġto": 133,
      "Ġb": 134,
      "in": 135,
      "Ġh": 136,
      "Ġwa": 137,
      "re": 138,
      "ou": 139,
      "Ġf": 140,
      "it": 141,
      "Ġl": 142,
      "Ġc": 143,
      "Ġd": 144,
      "er": 145,
      "Ġhe": 146,
      "Ġm": 147,
      "Ġp": 148,
      "Ġwas": 149,
      "ĠT": 150,
      "om": 151,
      "Ġo": 152,
      "ay": 153,
      "ar": 154,
      "is": 155,
      "ing": 156,
      "il": 157,
      "Ġg": 158,
      "id": 159,
      "at": 160,
      "en": 161,
      "Ġn": 162,
      "Ġsa": 163,
      "Ġha": 164,
      "ĠThe": 165,
      "ĠS": 166,
      "an": 167,
      "im": 168,
      "or": 169,
      "on": 170,
      "Ġit": 171,
      "Ġth": 172,
      "ll": 173,
      "le": 174,
      "ĠH": 175,
      "ot": 176,
      "Ġher": 177,
      "et": 178,
      "ir": 179,
      "ĠShe": 180,
      "es": 181,
      "ĠHe": 182,
      "Ġin": 183,
      "ver": 184,
      "ĠThey": 185,
      "ut": 186,
      "ow": 187,
      "ck": 188,
      "Ġe": 189,
      "Ġu": 190,
      "Ġy": 191,
      "ld": 192,
      "oo": 193,
      "ily": 194,
      "Ġsaid": 195,
      "ig": 196,
      "Ġr": 197,
      "Ġbe": 198,
      "Ġ\"": 199,
      "am": 200,
      "ĠI": 201,
      "Ġst": 202,
      "ke": 203,
      "ce": 204,
      "ve": 205,
      "ith": 206,
      "pp": 207,
      "Ġshe": 208,
      "Lily": 209,
      "Ġwith": 210,
      "On": 211,
      "Ġon": 212,
      "Ġyou": 213,
      "ked": 214,
      "Ġof": 215,
      "ri": 216,
      "Ġpl": 217,
      "nt": 218,
      "Ġhis": 219,
      "ad": 220,
      "Ġso": 221,
      "very": 222,
      "Ġday": 223,
      "Ġthat": 224,
      "Ġup": 225,
      "ĠLily": 226,
      "Ġplay": 227,
      "Ġhad": 228,
      "Ġthey": 229,
      "st": 230,
      "Ġwe": 231,
      "Ġmom": 232,
      "ĠB": 233,
      "Ġfor": 234,
      "el": 235,
      "un": 236,
      "ould": 237,
      "'s": 238,
      "my": 239,
      "Ġli": 240,
      "The": 241,
      "ch": 242,
      "Ġhapp": 243,
      "Ġwant": 244,
      "ent": 245,
      "Ġsh": 246,
      "itt": 247,
      "her": 248,
      "out": 249,
      "Ġnot": 250,
      "Ġdo": 251,
      "ome": 252,
      "se": 253,
      "Ġvery": 254,
      "ly": 255,
      "end": 256,
      "all": 257,
      "ound": 258,
      "Ġwh": 259,
      "Ġk": 260,
      "ime": 261,
      "ittle": 262,
      "Ġtime": 263,
      "al": 264,
      "Ġlittle": 265,
      "Ġne": 266,
      "ĠM": 267,
      "Ġthere": 268,
      "ht": 269,
      "Ġis": 270,
      "Ġhappy": 271,
      "Ġbig": 272,
      "ĠIt": 273,
      "Ġre": 274,
      "Ġsm": 275,
      "Ġbut": 276,
      "Ġsaw": 277,
      "Ġan": 278,
      "ra": 279,
      "ry": 280,
      "riend": 281,
      ".\"": 282,
      "Ġfriend": 283,
      "Ġas": 284,
      "ack": 285,
      "One": 286,
      "ide": 287,
      "ake": 288,
      "ug": 289,
      "'t": 290,
      "!\"": 291,
      "Ġloo": 292,
      "Ġwere": 293,
      "ter": 294,
      "ved": 295,
      "Ġlo": 296,
      "ore": 297,
      "Once": 298,
      "Ġse": 299,
      "Ġtoo": 300,
      "Ġhim": 301,
      "Ġbo": 302,
      "Ġgo": 303,
      "Ġare": 304,
      "ec": 305,
      "ĠTim": 306,
      "Ġj": 307,
      "Ġwanted": 308,
      "ard": 309,
      "ill": 310,
      "irl": 311,
      "Ġthem": 312,
      "Ġupon": 313,
      "Ġgirl": 314,
      "Ġtheir": 315,
      "Ġout": 316,
      "Ġat": 317,
      "ind": 318,
      "ur": 319,
      "Ġdid": 320,
      "way": 321,
      "fu": 322,
      "Ġsp": 323,
      "ĠA": 324,
      "Ġcould": 325,
      "Ġsmil": 326,
      "hen": 327,
      "Ġhave": 328,
      "ain": 329,
      "hed": 330,
      "art": 331,
      "ĠBen": 332,
      "rom": 333,
      "Ġex": 334,
      "Ġcan": 335,
      "Ġwent": 336,
      "ic": 337,
      "Ġar": 338,
      "lp": 339,
      "ood": 340,
      "ful": 341,
      "Ġfriends": 342,
      "?\"": 343,
      "hing": 344,
      "Ġnam": 345,
      "Ġkn": 346,
      "ĠJ": 347,
      "ight": 348,
      "Ġhelp": 349,
      "Ġsay": 350,
      "Ġall": 351,
      "one": 352,
      "um": 353,
      "ark": 354,
      "Ġback": 355,
      "You": 356,
      "Ġfun": 357,
      "ĠTom": 358,
      "Ġcl": 359,
      "are": 360,
      "Ġno": 361,
      "Ġle": 362,
      "op": 363,
      "Ġsc": 364,
      "Ġnamed": 365,
      "Ġal": 366,
      "elt": 367,
      "oug": 368,
      "Ġman": 369,
      "Ġloved": 370,
      "side": 371,
      "Ġsmiled": 372,
      "ĠOne": 373,
      "Ġtoy": 374,
      "Ġlike": 375,
      "ick": 376,
      "Ġfelt": 377,
      "Ġasked": 378,
      "Ġfe": 379,
      "Ġsome": 380,
      "Ġsee": 381,
      "Ġlooked": 382,
      "Ġme": 383,
      "ame": 384,
      "Ġaround": 385,
      "Ġro": 386,
      "ĠTimmy": 387,
      "omet": 388,
      "ĠW": 389,
      "ure": 390,
      "Ġbr": 391,
      "Ġbir": 392,
      "get": 393,
      "ice": 394,
      "Ġboy": 395,
      "Ġwould": 396,
      "ong": 397,
      "Ġstart": 398,
      "as": 399,
      "Ġbird": 400,
      "Ġsomet": 401,
      "ings": 402,
      "Ġfa": 403,
      "ade": 404,
      "Ġmake": 405,
      "Ġag": 406,
      "Ġwhat": 407,
      "Ġwor": 408,
      "dd": 409,
      "ĠYou": 410,
      ",\"": 411,
      "Ġsays": 412,
      "ĠBut": 413,
      "king": 414,
      "Ġran": 415,
      "Ġaway": 416,
      "own": 417,
      "gether": 418,
      "Ġtre": 419,
      "Ã¢": 420,
      "âĤ": 421,
      "âĤ¬": 422,
      "ag": 423,
      "ared": 424,
      "ie": 425,
      "oud": 426,
      "Ġmade": 427,
      "Ġstarted": 428,
      "if": 429,
      "Ġcar": 430,
      "Ġtogether": 431,
      "Ġsomething": 432,
      "Ġco": 433,
      "ther": 434,
      "Ġpark": 435,
      "Ġsad": 436,
      "Ġother": 437,
      "ited": 438,
      "Ġput": 439,
      "Ġnew": 440,
      "Ġfrom": 441,
      "ell": 442,
      "Ġhug": 443,
      "Ġpr": 444,
      "ble": 445,
      "Ġagain": 446,
      "ook": 447,
      "Ġexc": 448,
      "ach": 449,
      "ĠL": 450,
      "Ġgood": 451,
      "Ġhome": 452,
      "Ġla": 453,
      "Ġmu": 454,
      "ss": 455,
      "Ġwhen": 456,
      "Ġfl": 457,
      "ried": 458,
      "ep": 459,
      "Ġwho": 460,
      "est": 461,
      "Ġthen": 462,
      "Ġfound": 463,
      "Ġch": 464,
      "Ġdec": 465,
      "pped": 466,
      "hat": 467,
      "Ġget": 468,
      "Ġwal": 469,
      "Ġplaying": 470,
      "qu": 471,
      "Ġsw": 472,
      "ought": 473,
      "nn": 474,
      "Ġliked": 475,
      "uck": 476,
      "Ġthings": 477,
      "ĠE": 478,
      "ally": 479,
      "pl": 480,
      "ous": 481,
      "Ġgot": 482,
      "Ġbl": 483,
      "Ġexcited": 484,
      "ro": 485,
      "ided": 486,
      "ave": 487,
      "Ġcame": 488,
      "ara": 489,
      "Ġevery": 490,
      "Ġdecided": 491,
      "Ġyour": 492,
      "Ġdog": 493,
      "ĠMom": 494,
      "ax": 495,
      "Ġscared": 496,
      "ĠD": 497,
      "Ġone": 498,
      "Ġdown": 499,
      "ust": 500,
      "Ġv": 501,
      "Ġfind": 502,
      "Ġcare": 503,
      "They": 504,
      "nna": 505,
      "ouse": 506,
      "ap": 507,
      "Ġbec": 508,
      "ist": 509,
      "Ġthan": 510,
      "ny": 511,
      "Ġfeel": 512,
      "ue": 513,
      "Ġdad": 514,
      "Ġab": 515,
      "Ġwill": 516,
      "Ġmy": 517,
      "arn": 518,
      "Ġlook": 519,
      "udd": 520,
      "our": 521,
      "Ġgr": 522,
      "ers": 523,
      "Ġke": 524,
      "Ġgra": 525,
      "us": 526,
      "Ġdidn": 527,
      "ways": 528,
      "ess": 529,
      "Ġpo": 530,
      "Ġtoys": 531,
      "Ġtook": 532,
      "fe": 533,
      "nder": 534,
      "Ġabout": 535,
      "Ġball": 536,
      "Ġalways": 537,
      "Ġlot": 538,
      "Ġmommy": 539,
      "ĠSam": 540,
      "ant": 541,
      "Ġkne": 542,
      "bb": 543,
      "Ġtree": 544,
      "ise": 545,
      "Ġoutside": 546,
      "ĠF": 547,
      "Ġthought": 548,
      "ite": 549,
      "Ġmore": 550,
      "Ġta": 551,
      "ened": 552,
      "Ġlearn": 553,
      "ret": 554,
      "Ġho": 555,
      "ched": 556,
      "Ġknow": 557,
      "eci": 558,
      "Ġint": 559,
      "ged": 560,
      "Ġsor": 561,
      "Ġcat": 562,
      "Ġlaug": 563,
      "Ġtake": 564,
      "Ġold": 565,
      "ive": 566,
      "ia": 567,
      "ĠMax": 568,
      "Ġspeci": 569,
      "Ġspecial": 570,
      "Ġknew": 571,
      "Ġany": 572,
      "Ġpe": 573,
      "udden": 574,
      "fter": 575,
      "Ġhow": 576,
      "Ġsorry": 577,
      "Ġtr": 578,
      "ma": 579,
      "ink": 580,
      "But": 581,
      "Ġshow": 582,
      "ish": 583,
      "uddenly": 584,
      "Ġrun": 585,
      "au": 586,
      "Ġsl": 587,
      "Ġmuch": 588,
      "Ġtw": 589,
      "Ġhand": 590,
      "and": 591,
      "Ġor": 592,
      "Ġhouse": 593,
      "Ġop": 594,
      "Ġmo": 595,
      "Ġwater": 596,
      "Ġsk": 597,
      "ven": 598,
      "Ġtried": 599,
      "Ġinto": 600,
      "Ġsun": 601,
      "ank": 602,
      "Ġinside": 603,
      "Tom": 604,
      "Ġclo": 605,
      "ate": 606,
      "Ġtold": 607,
      "Ġgave": 608,
      "ump": 609,
      "ĠSara": 610,
      "ty": 611,
      "Ġproud": 612,
      "Ġeach": 613,
      "Ġqu": 614,
      "Ġen": 615,
      "ĠWe": 616,
      "Ġif": 617,
      "Ġover": 618,
      "Ġroom": 619,
      "Ġcouldn": 620,
      "Ġheard": 621,
      "ace": 622,
      "Ġnever": 623,
      "Ġeat": 624,
      "Ġthis": 625,
      "ĠAnna": 626,
      "Ġpret": 627,
      "other": 628,
      "dy": 629,
      "ĠEvery": 630,
      "ause": 631,
      "by": 632,
      "ak": 633,
      "Ġplayed": 634,
      "Ġpick": 635,
      "ion": 636,
      "Mom": 637,
      "etter": 638,
      "Ġhugged": 639,
      "Ġexpl": 640,
      "here": 641,
      "ge": 642,
      "Ġcom": 643,
      "Ġgre": 644,
      "Ġjust": 645,
      "Ġnice": 646,
      "Ġbox": 647,
      "Ġmany": 648,
      "Ġneed": 649,
      "Ġwat": 650,
      "oth": 651,
      "Ġstr": 652,
      "sed": 653,
      "Ġbecause": 654,
      "Ġoff": 655,
      "ile": 656,
      "'m": 657,
      "gry": 658,
      "Ġsmall": 659,
      "iz": 660,
      "Ġbu": 661,
      "ving": 662,
      "Ġlong": 663,
      "Ġjo": 664,
      "Ġsn": 665,
      "ine": 666,
      "Ġfo": 667,
      "imal": 668,
      "Ġanimal": 669,
      "Ġbear": 670,
      "Ġtry": 671,
      "ough": 672,
      "uc": 673,
      "ort": 674,
      "urt": 675,
      "Ġlearned": 676,
      "Ġunt": 677,
      "sel": 678,
      "ild": 679,
      "Ġlove": 680,
      "Ġuntil": 681,
      "ĠMia": 682,
      "Ġkind": 683,
      "ft": 684,
      "Ġbetter": 685,
      "Ġflow": 686,
      "ĠJack": 687,
      "He": 688,
      "ĠAnd": 689,
      "Ġte": 690,
      "Ġend": 691,
      "Ġim": 692,
      "urn": 693,
      "Ġdon": 694,
      "ves": 695,
      "Ġcle": 696,
      "Ġpu": 697,
      "Ġcall": 698,
      "Ġbest": 699,
      "ady": 700,
      "ars": 701,
      "ream": 702,
      "aut": 703,
      "Ġad": 704,
      "Yes": 705,
      "vent": 706,
      "Ġfast": 707,
      "Ġcareful": 708,
      "urp": 709,
      "arden": 710,
      "Ġgarden": 711,
      "ĠC": 712,
      "Ġbeaut": 713,
      "ĠJo": 714,
      "Ġfi": 715,
      "Th": 716,
      "ber": 717,
      "Ġsky": 718,
      "Ġthanked": 719,
      "Ġbra": 720,
      "Ġjump": 721,
      "Ġeven": 722,
      "ies": 723,
      "Ġloud": 724,
      "ase": 725,
      "pt": 726,
      "Ġby": 727,
      "ĠSo": 728,
      "Ġlaughed": 729,
      "em": 730,
      "ĠHer": 731,
      "Ġche": 732,
      "iny": 733,
      "wn": 734,
      "self": 735,
      "Ġgl": 736,
      "lly": 737,
      "Ġlist": 738,
      "It": 739,
      "Ġcome": 740,
      "Ġbeauti": 741,
      "Ġhard": 742,
      "Ġstill": 743,
      "Ġhurt": 744,
      "lew": 745,
      "Ġbeautiful": 746,
      "Ġanimals": 747,
      "Ġlots": 748,
      "Ġfam": 749,
      "Ġway": 750,
      "Ġwo": 751,
      "Åĵ": 752,
      "Ġra": 753,
      "Ġunder": 754,
      "ĠThen": 755,
      "hes": 756,
      "Ġlet": 757,
      "Ġstay": 758,
      "be": 759,
      "ĠFrom": 760,
      "ect": 761,
      "Ġbad": 762,
      "ning": 763,
      "ct": 764,
      "Ġsafe": 765,
      "Ġcol": 766,
      "ool": 767,
      "Ġcu": 768,
      "ast": 769,
      "Ġboth": 770,
      "ĠHis": 771,
      "ople": 772,
      "ock": 773,
      "kay": 774,
      "Ġrem": 775,
      "Ġbook": 776,
      "Tim": 777,
      "Ġangry": 778,
      "Ġlived": 779,
      "ished": 780,
      "Ġits": 781,
      "Ġimp": 782,
      "ree": 783,
      "ress": 784,
      "Ġtwo": 785,
      "ĠÃ¢": 786,
      "Ġpeople": 787,
      "ane": 788,
      "Ġbrave": 789,
      "Ġfamily": 790,
      "Ġshould": 791,
      "No": 792,
      "Ġred": 793,
      "urpr": 794,
      "igh": 795,
      "Ġwalked": 796,
      "Ġsurpr": 797,
      "Ġflew": 798,
      "Ġfin": 799,
      "Ġstor": 800,
      "Ġshare": 801,
      "Ġdan": 802,
      "Ġsoon": 803,
      "ucy": 804,
      "When": 805,
      "Ġfly": 806,
      "ob": 807,
      "xt": 808,
      "Ġpic": 809,
      "Ġdoll": 810,
      "fore": 811,
      "led": 812,
      "Ġkept": 813,
      "Ġcalled": 814,
      "ip": 815,
      "Ġfore": 816,
      "Ben": 817,
      "Let": 818,
      "Ġrock": 819,
      "Ġclean": 820,
      "Ġpretty": 821,
      "ised": 822,
      "Ġdoor": 823,
      "dded": 824,
      "Ġshiny": 825,
      "ĠP": 826,
      "ĠWhen": 827,
      "Ġgoing": 828,
      "Ġkeep": 829,
      "Ġdra": 830,
      "hn": 831,
      "Ġnoise": 832,
      "Ġnow": 833,
      "Ġreal": 834,
      "Ġwind": 835,
      "Ġopened": 836,
      "Ġadvent": 837,
      "Ġturn": 838,
      "ummy": 839,
      "Ġide": 840,
      "ary": 841,
      "so": 842,
      "Ġcry": 843,
      "Ġbefore": 844,
      "Ġcon": 845,
      "age": 846,
      "Ġground": 847,
      "Ġalso": 848,
      "Ġsto": 849,
      "les": 850,
      "illy": 851,
      "oon": 852,
      "Ġey": 853,
      "Ġcolor": 854,
      "Ġexplore": 855,
      "ied": 856,
      "Ġfar": 857,
      "Ġhas": 858,
      "Ġidea": 859,
      "Ġfr": 860,
      "What": 861,
      "kes": 862,
      "imb": 863,
      "Ġwar": 864,
      "th": 865,
      "ture": 866,
      "Ġun": 867,
      "thing": 868,
      "Ġnext": 869,
      "Ġpicked": 870,
      "Ġclimb": 871,
      "uch": 872,
      "Ġnodded": 873,
      "That": 874,
      "oy": 875,
      "aybe": 876,
      "Ġsmile": 877,
      "Ġthr": 878,
      "Ġfeeling": 879,
      "Ġtruck": 880,
      "Ġwhile": 881,
      "Ġbed": 882,
      "ĠDad": 883,
      "Ġwalking": 884,
      "TM": 885,
      "eet": 886,
      "Ġwr": 887,
      "Ġadventure": 888,
      "Thank": 889,
      "ger": 890,
      "ĠLucy": 891,
      "Ġpicture": 892,
      "ac": 893,
      "ĠG": 894,
      "Ġbeing": 895,
      "Ġthink": 896,
      "Ġgive": 897,
      "Ġfood": 898,
      "Ġma": 899,
      "ff": 900,
      "iced": 901,
      "Ġtra": 902,
      "Ġdif": 903,
      "Ġbre": 904,
      "pot": 905,
      "joy": 906,
      "Ġbro": 907,
      "Ġtow": 908,
      "ted": 909,
      "ious": 910,
      "Ġlisten": 911,
      "Ġclos": 912,
      "Ġeyes": 913,
      "Ġwait": 914,
      "ught": 915,
      "Ġown": 916,
      "Ġfish": 917,
      "Ġstopped": 918,
      "Ġafter": 919,
      "Ġlooking": 920,
      "ting": 921,
      "Ġflowers": 922,
      "ember": 923,
      "Ġdel": 924,
      "Ġwalk": 925,
      "Ġhands": 926,
      "Ġblue": 927,
      "ized": 928,
      "She": 929,
      "Ġslide": 930,
      "Ġshout": 931,
      "Ġrepl": 932,
      "Ġgreat": 933,
      "Ġever": 934,
      "Ġmean": 935,
      "Ġenjoy": 936,
      "Ġvo": 937,
      "Ġhead": 938,
      "irst": 939,
      "ila": 940,
      "Ġrain": 941,
      "ĠSuddenly": 942,
      "Suddenly": 943,
      "Ġnear": 944,
      "Ġnoticed": 945,
      "Ġdis": 946,
      "Ġforest": 947,
      "Ġus": 948,
      "Ġask": 949,
      "Ġimport": 950,
      "Ġquick": 951,
      "Ġremember": 952,
      "bbit": 953,
      "Ġsound": 954,
      "Ġapp": 955,
      "llow": 956,
      "Ġokay": 957,
      "Ġde": 958,
      "maz": 959,
      "Ġwork": 960,
      "Ġshowed": 961,
      "Ġwonder": 962,
      "Ġamaz": 963,
      "Ġtal": 964,
      "lease": 965,
      "Ġstick": 966,
      "Ġwatch": 967,
      "Ġimportant": 968,
      "bbed": 969,
      "We": 970,
      "bye": 971,
      "Ġstrong": 972,
      "gan": 973,
      "Ġac": 974,
      "Anna": 975,
      "Ġeveryone": 976,
      "Ġbright": 977,
      "day": 978,
      "fere": 979,
      "Ġrabbit": 980,
      "Ġdiffere": 981,
      "Ġboat": 982,
      "Ġour": 983,
      "Ġreplied": 984,
      "Ġsqu": 985,
      "Ġwhere": 986,
      "Ġright": 987,
      "Ġfollow": 988,
      "ĠSpot": 989,
      "Ġuse": 990,
      "Ġdoes": 991,
      "co": 992,
      "Ġwatched": 993,
      "able": 994,
      "Ġhop": 995,
      "Ġyell": 996,
      "Ġface": 997,
      "ath": 998,
      "Ġmor": 999,
      "Ġquickly": 1000,
      "ĠSue": 1001,
      "Look": 1002,
      "ered": 1003,
      "Ġstore": 1004,
      "ĠN": 1005,
      "Ġdress": 1006,
      "Ġsure": 1007,
      "Ġbeen": 1008,
      "Ġbecame": 1009,
      "ange": 1010,
      "Ġplace": 1011,
      "Sara": 1012,
      "ng": 1013,
      "Ġdifferent": 1014,
      "Ġchild": 1015,
      "ĠMommy": 1016,
      "Ġcuri": 1017,
      "aught": 1018,
      "Ġwarm": 1019,
      "Ġye": 1020,
      "Ġgoodbye": 1021,
      "Ġam": 1022,
      "So": 1023,
      "Ġmag": 1024,
      "ĠBob": 1025,
      "Ġhigh": 1026,
      "Ġvoice": 1027,
      "ĠR": 1028,
      "Ġforg": 1029,
      "Ġblock": 1030,
      "Ġtell": 1031,
      "Ġcake": 1032,
      "more": 1033,
      "Ġanymore": 1034,
      "leep": 1035,
      "ndma": 1036,
      "Ġcloser": 1037,
      "Ġcook": 1038,
      "Ġcurious": 1039,
      "itc": 1040,
      "Ġfav": 1041,
      "Ġbel": 1042,
      "ount": 1043,
      "Ġnight": 1044,
      "Ġpull": 1045,
      "Ġopen": 1046,
      "ired": 1047,
      "imes": 1048,
      "ĠTh": 1049,
      "Ġlea": 1050,
      "ached": 1051,
      "Ġpain": 1052,
      "iss": 1053,
      "Ġfirst": 1054,
      "Ġz": 1055,
      "Her": 1056,
      "Ġbutter": 1057,
      "Ġhere": 1058,
      "Ġfell": 1059,
      "Ġbus": 1060,
      "Ġkid": 1061,
      "ull": 1062,
      "Ġgrabbed": 1063,
      "Ġru": 1064,
      "Jo": 1065,
      "Ġsees": 1066,
      "Can": 1067,
      "unny": 1068,
      "Ġsweet": 1069,
      "orn": 1070,
      "Ġonly": 1071,
      "Ġflo": 1072,
      "itchen": 1073,
      "Ġkitchen": 1074,
      "Ġthree": 1075,
      "Ġsand": 1076,
      "Ġhelped": 1077,
      "Ġbirds": 1078,
      "Ġstop": 1079,
      "Ġdr": 1080,
      "Ġcont": 1081,
      "Ġcra": 1082,
      "Ġbit": 1083,
      "Ġba": 1084,
      "Ġhappened": 1085,
      "Ġjumped": 1086,
      "Ġglad": 1087,
      "Ġfire": 1088,
      "Ġmon": 1089,
      "ppy": 1090,
      "Ġsing": 1091,
      "Ġbeh": 1092,
      "Ġgrass": 1093,
      "Ġtri": 1094,
      "Ġper": 1095,
      "Ġcr": 1096,
      "Ġbrother": 1097,
      "Ġrealized": 1098,
      "ĠDo": 1099,
      "After": 1100,
      "isy": 1101,
      "Ġstory": 1102,
      "Ġshouted": 1103,
      "air": 1104,
      "Ġreached": 1105,
      "Ġmess": 1106,
      "Ġsoft": 1107,
      "akes": 1108,
      "ass": 1109,
      "ĠLet": 1110,
      "Ġyummy": 1111,
      "Ġlady": 1112,
      "Ġgame": 1113,
      "ins": 1114,
      "Ġhaving": 1115,
      "nts": 1116,
      "Ġdraw": 1117,
      "Ġate": 1118,
      "Ġhat": 1119,
      "Ġprin": 1120,
      "ĠSarah": 1121,
      "Ġpretend": 1122,
      "zy": 1123,
      "ĠEveryone": 1124,
      "Ġpap": 1125,
      "Ġthrough": 1126,
      "Ġfavor": 1127,
      "Ġunderst": 1128,
      "'re": 1129,
      "where": 1130,
      "Ġcre": 1131,
      "ĠJane": 1132,
      "Ġless": 1133,
      "Ġrest": 1134,
      "Ġfavorite": 1135,
      "Ġready": 1136,
      "ater": 1137,
      "ĠAs": 1138,
      "Ġthing": 1139,
      "Ġlooks": 1140,
      "ken": 1141,
      "Ġmaking": 1142,
      "ather": 1143,
      "ĠCan": 1144,
      "Ġkids": 1145,
      "Ġmagic": 1146,
      "Ġreally": 1147,
      "Ġduck": 1148,
      "Ġpare": 1149,
      "Ġtired": 1150,
      "Ġpond": 1151,
      "Ġfix": 1152,
      "Ġcars": 1153,
      "Ġcut": 1154,
      "Ġworld": 1155,
      "Wow": 1156,
      "Ġdone": 1157,
      "ĠThat": 1158,
      "Ġbegan": 1159,
      "Ġmum": 1160,
      "Mommy": 1161,
      "Ġbunny": 1162,
      "Ġwaved": 1163,
      "bo": 1164,
      "Ġhimself": 1165,
      "Ġcatch": 1166,
      "Ġbutterf": 1167,
      "Ġcoming": 1168,
      "Ġtouch": 1169,
      "Ġfunny": 1170,
      "Ġcried": 1171,
      "Ġused": 1172,
      "fully": 1173,
      "Ġworry": 1174,
      "Ġpart": 1175,
      "Ġwhy": 1176,
      "Ġprom": 1177,
      "uff": 1178,
      "Ġname": 1179,
      "ign": 1180,
      "Ġblocks": 1181,
      "Ġanother": 1182,
      "Ġfill": 1183,
      "Ġste": 1184,
      "ĠJoe": 1185,
      "Ġflower": 1186,
      "Ġpus": 1187,
      "Ġhold": 1188,
      "Ġfro": 1189,
      "Ġhair": 1190,
      "Ġtast": 1191,
      "Ġtop": 1192,
      "Ġseen": 1193,
      "Ġcool": 1194,
      "ster": 1195,
      "oney": 1196,
      "Ġswim": 1197,
      "rel": 1198,
      "Ġwished": 1199,
      "sh": 1200,
      "eddy": 1201,
      "iver": 1202,
      "Ġthank": 1203,
      "Ġmouse": 1204,
      "Ġfloor": 1205,
      "Ġlight": 1206,
      "Ġgreen": 1207,
      "Ġbag": 1208,
      "ient": 1209,
      "Ġdelic": 1210,
      "Ġlikes": 1211,
      "Ġgi": 1212,
      "Ġpaper": 1213,
      "Ġsmell": 1214,
      "Ġfarm": 1215,
      "hy": 1216,
      "Timmy": 1217,
      "Ġparents": 1218,
      "As": 1219,
      "Ġbehind": 1220,
      "ation": 1221,
      "olly": 1222,
      "Ġlesson": 1223,
      "Ġdri": 1224,
      "Don": 1225,
      "Ġsurprise": 1226,
      "Ġdoing": 1227,
      "Ġhopped": 1228,
      "Ġdro": 1229,
      "Ġbow": 1230,
      "Ġworked": 1231,
      "Ġsleep": 1232,
      "Ġhole": 1233,
      "ards": 1234,
      "ĠJohn": 1235,
      "Sam": 1236,
      "Ġwindow": 1237,
      "andy": 1238,
      "Ġyellow": 1239,
      "Ġread": 1240,
      "Ġtrees": 1241,
      "Ġdark": 1242,
      "Ġdin": 1243,
      "Ġfull": 1244,
      "Ġsho": 1245,
      "Ġlaugh": 1246,
      "Ġrunning": 1247,
      "aisy": 1248,
      "ued": 1249,
      "ike": 1250,
      "ely": 1251,
      "Ġcold": 1252,
      "ren": 1253,
      "Ġswing": 1254,
      "rew": 1255,
      "Ġsat": 1256,
      "Ġspot": 1257,
      "Ġwood": 1258,
      "ul": 1259,
      "\".": 1260,
      "Ġsurprised": 1261,
      "Ġslow": 1262,
      "Ġremembered": 1263,
      "aring": 1264,
      "Ġbutterfly": 1265,
      "Ġhappily": 1266,
      "Ġset": 1267,
      "Ġlost": 1268,
      "Ġ-": 1269,
      "Ġneeded": 1270,
      "ons": 1271,
      "Ġyears": 1272,
      "Ġice": 1273,
      "ĠIn": 1274,
      "Ġheld": 1275,
      "Ġbuy": 1276,
      "Hell": 1277,
      "Hello": 1278,
      "Ġmove": 1279,
      "Ġfrog": 1280,
      "Ġanything": 1281,
      "Ġwrong": 1282,
      "Ġcarefully": 1283,
      "uit": 1284,
      "Ġsnow": 1285,
      "John": 1286,
      "Ġhear": 1287,
      "Ġleft": 1288,
      "Ġtall": 1289,
      "Ġhun": 1290,
      "ens": 1291,
      "Ġperf": 1292,
      "Ġdir": 1293,
      "Ġdream": 1294,
      "Ġfair": 1295,
      "Ġfollowed": 1296,
      "Ġair": 1297,
      "Ġenjoyed": 1298,
      "ĠLila": 1299,
      "TMs": 1300,
      "Ġel": 1301,
      "Ġfinished": 1302,
      "Ġcast": 1303,
      "Ġchildren": 1304,
      "cess": 1305,
      "Ġbug": 1306,
      "Ġbooks": 1307,
      "Ġhot": 1308,
      "Ġtable": 1309,
      "inally": 1310,
      "ined": 1311,
      "Ġherself": 1312,
      "Ġhill": 1313,
      "Ġhid": 1314,
      "reed": 1315,
      "ĠAfter": 1316,
      "Ġarri": 1317,
      "Ġfriendly": 1318,
      "Ġunderstand": 1319,
      "ds": 1320,
      "Ġarm": 1321,
      "Ġcontin": 1322,
      "Ġclose": 1323,
      "Ġplease": 1324,
      "Ġforgot": 1325,
      "ross": 1326,
      "Ġmight": 1327,
      "Ġcolors": 1328,
      "Ġelse": 1329,
      "ĠBenny": 1330,
      "Ġdelicious": 1331,
      "Ġbroken": 1332,
      "Ġbuild": 1333,
      "Ġwants": 1334,
      "asure": 1335,
      "Ġrel": 1336,
      "lf": 1337,
      "ash": 1338,
      "Ġgone": 1339,
      "sp": 1340,
      "Ġgent": 1341,
      "ield": 1342,
      "OK": 1343,
      "Ġbaby": 1344,
      "room": 1345,
      "atter": 1346,
      "Ġarrived": 1347,
      "Ġcreat": 1348,
      "Ġtight": 1349,
      "Ġable": 1350,
      "ĠNow": 1351,
      "Ġleaves": 1352,
      "Ġsong": 1353,
      "Ġwonderful": 1354,
      "Ġsomeone": 1355,
      "Then": 1356,
      "Ġyes": 1357,
      "Ġwall": 1358,
      "Ġsquir": 1359,
      "ner": 1360,
      "ĠSally": 1361,
      "Ġfilled": 1362,
      "av": 1363,
      "Ġcontinued": 1364,
      "ich": 1365,
      "ĠThere": 1366,
      "ask": 1367,
      "Ġlion": 1368,
      "Ġcount": 1369,
      "Ġbreak": 1370,
      "Ġsquirrel": 1371,
      "Ġagreed": 1372,
      "Ġju": 1373,
      "Ġpink": 1374,
      "ĠMaybe": 1375,
      "Ġscary": 1376,
      "Ġpoin": 1377,
      "Ġfall": 1378,
      "Ġenough": 1379,
      "From": 1380,
      "ĠDaisy": 1381,
      "ey": 1382,
      "Ġcastle": 1383,
      "icy": 1384,
      "ries": 1385,
      "ee": 1386,
      "man": 1387,
      "Ġgrandma": 1388,
      "Ġvis": 1389,
      "ĠEm": 1390,
      "Ġstayed": 1391,
      "Ġhungry": 1392,
      "Jack": 1393,
      "Ġmakes": 1394,
      "Ġmoment": 1395,
      "Ġmorning": 1396,
      "Ġsmiles": 1397,
      "'ll": 1398,
      "Ġfinally": 1399,
      "Ġwet": 1400,
      "Ġfight": 1401,
      "Ġcomp": 1402,
      "Ġcookies": 1403,
      "Ġgetting": 1404,
      "oup": 1405,
      "Ġturned": 1406,
      "Ġsometimes": 1407,
      "gon": 1408,
      "app": 1409,
      "row": 1410,
      "Ġpictures": 1411,
      "Ġpi": 1412,
      "Ġtalk": 1413,
      "Ġbeach": 1414,
      "rot": 1415,
      "Ġcream": 1416,
      "ama": 1417,
      "ĠTommy": 1418,
      "Ġclimbed": 1419,
      "ĠThis": 1420,
      "Ġothers": 1421,
      "Ġtrying": 1422,
      "Ġclot": 1423,
      "Ġballoon": 1424,
      "Ġlistened": 1425,
      "oom": 1426,
      "ĠK": 1427,
      "Ġdinner": 1428,
      "Ġamazing": 1429,
      "Ġtail": 1430,
      "Ġclothes": 1431,
      "ced": 1432,
      "Ġmus": 1433,
      "ĠWhat": 1434,
      "Ġfew": 1435,
      "ance": 1436,
      "apped": 1437,
      "Ġmar": 1438,
      "This": 1439,
      "Ġmet": 1440,
      "Ġpuppy": 1441,
      "lc": 1442,
      "At": 1443,
      "Ġmother": 1444,
      "ence": 1445,
      "Ġdaddy": 1446,
      "Ġperfect": 1447,
      "oring": 1448,
      "amp": 1449,
      "Ġasks": 1450,
      "Ġspl": 1451,
      "ĠBilly": 1452,
      "ĠGra": 1453,
      "Ġwhite": 1454,
      "ĠJen": 1455,
      "key": 1456,
      "red": 1457,
      "Ġfur": 1458,
      "Ġalone": 1459,
      "ctor": 1460,
      "uffy": 1461,
      "His": 1462,
      "Ġpet": 1463,
      "Ġsail": 1464,
      "Ġwasn": 1465,
      "ucky": 1466,
      "Ġsit": 1467,
      "Ġbrought": 1468,
      "Ġeverything": 1469,
      "Ġsear": 1470,
      "ister": 1471,
      "Ġpol": 1472,
      "der": 1473,
      "Ġjoy": 1474,
      "Oh": 1475,
      "Ġgrow": 1476,
      "ott": 1477,
      "Ġroll": 1478,
      "Ġstrange": 1479,
      "Ġpulled": 1480,
      "ated": 1481,
      "Ġwaited": 1482,
      "Ġpie": 1483,
      "wl": 1484,
      "Ġspark": 1485,
      "Ġdeep": 1486,
      "Ġride": 1487,
      "ĠTo": 1488,
      "Ġdanger": 1489,
      "Ġwoods": 1490,
      "Ġplan": 1491,
      "Ġwon": 1492,
      "Ġruns": 1493,
      "Ġleave": 1494,
      "Ġmusic": 1495,
      "me": 1496,
      "Ġthinks": 1497,
      "Ġamazed": 1498,
      "Ġvisit": 1499,
      "zz": 1500,
      "ower": 1501,
      "Ġhide": 1502,
      "ang": 1503,
      "Ġteddy": 1504,
      "Ġcloud": 1505,
      "eter": 1506,
      "Maybe": 1507,
      "Ġfox": 1508,
      "Ġpat": 1509,
      "os": 1510,
      "ever": 1511,
      "Ġpen": 1512,
      "Ġsilly": 1513,
      "ugg": 1514,
      "Ġliving": 1515,
      "Ġflying": 1516,
      "Max": 1517,
      "ope": 1518,
      "Ġshap": 1519,
      "Ġem": 1520,
      "Ġtowards": 1521,
      "gs": 1522,
      "Ġtreat": 1523,
      "Ġowner": 1524,
      "med": 1525,
      "ames": 1526,
      "ises": 1527,
      "Ġpa": 1528,
      "thy": 1529,
      "Ġpre": 1530,
      "Ġgu": 1531,
      "Ġside": 1532,
      "Okay": 1533,
      "Ġland": 1534,
      "Ġgrate": 1535,
      "Ġfield": 1536,
      "Ġlake": 1537,
      "Ġshared": 1538,
      "ained": 1539,
      "Ġqui": 1540,
      "Ġmoney": 1541,
      "Ġpaint": 1542,
      "cket": 1543,
      "igg": 1544,
      "Ġfaster": 1545,
      "Ġparty": 1546,
      "Ġpromised": 1547,
      "Ġgrateful": 1548,
      "Ġsister": 1549,
      "Ġbelie": 1550,
      "ĠAmy": 1551,
      "Ġdance": 1552,
      "Ġbott": 1553,
      "Ġrace": 1554,
      "avy": 1555,
      "Ġmoral": 1556,
      "ix": 1557,
      "eces": 1558,
      "Ġcup": 1559,
      "cle": 1560,
      "Ġtreasure": 1561,
      "Ġbroke": 1562,
      "up": 1563,
      "Ġpieces": 1564,
      "Ġcandy": 1565,
      "Ġjob": 1566,
      "Ġquiet": 1567,
      "Ġworried": 1568,
      "unch": 1569,
      "Ġblank": 1570,
      "Ġcolorful": 1571,
      "sw": 1572,
      "Ġtrain": 1573,
      "ze": 1574,
      "Ġbigger": 1575,
      "Ġbran": 1576,
      "Ġansw": 1577,
      "Ġslowly": 1578,
      "orm": 1579,
      "Ġwear": 1580,
      "outh": 1581,
      "Ġgif": 1582,
      "Ġdolls": 1583,
      "Ġwelc": 1584,
      "ually": 1585,
      "Ġblanket": 1586,
      "Ġreach": 1587,
      "Ġmouth": 1588,
      "ling": 1589,
      "Ġmust": 1590,
      "Ġve": 1591,
      "Ġsnack": 1592,
      "ol": 1593,
      "Ġsuch": 1594,
      "Ġcho": 1595,
      "fort": 1596,
      "Ġbike": 1597,
      "Ġeverywhere": 1598,
      "Ġele": 1599,
      "Ġsmart": 1600,
      "Ġscream": 1601,
      "ased": 1602,
      "Ġpro": 1603,
      "Ġblack": 1604,
      "less": 1605,
      "ph": 1606,
      "Ġriver": 1607,
      "ĠAll": 1608,
      "ire": 1609,
      "Ġnap": 1610,
      "Ġplant": 1611,
      "Ġbar": 1612,
      "Ġjoin": 1613,
      "Ġmagical": 1614,
      "ĠJim": 1615,
      "Sure": 1616,
      "Ġje": 1617,
      "Ġpot": 1618,
      "Ġsign": 1619,
      "Ġprincess": 1620,
      "Ġdangerous": 1621,
      "Ġhelping": 1622,
      "Ġwin": 1623,
      "cked": 1624,
      "Ġthrew": 1625,
      "set": 1626,
      "Ġdirty": 1627,
      "ming": 1628,
      "Ġcarrot": 1629,
      "Ġtwins": 1630,
      "Ġbowl": 1631,
      "Ġdragon": 1632,
      "Ġcrying": 1633,
      "Ġtower": 1634,
      "ipped": 1635,
      "Ġbite": 1636,
      "Ġhoped": 1637,
      "Ġdoctor": 1638,
      "ored": 1639,
      "Ġmost": 1640,
      "Ġteac": 1641,
      "ĠFl": 1642,
      "Ġspr": 1643,
      "ident": 1644,
      "Ġsame": 1645,
      "Ġfarmer": 1646,
      "Ġheavy": 1647,
      "Ġbee": 1648,
      "Ġwords": 1649,
      "Ġmonster": 1650,
      "Ġacc": 1651,
      "Ġmonkey": 1652,
      "bble": 1653,
      "ear": 1654,
      "ere": 1655,
      "de": 1656,
      "Ġheal": 1657,
      "Ġacross": 1658,
      "Ġcoll": 1659,
      "Ġbath": 1660,
      "Why": 1661,
      "Ġdisapp": 1662,
      "Hi": 1663,
      "Ġbuck": 1664,
      "Ġhig": 1665,
      "Ġfruit": 1666,
      "Ġstepped": 1667,
      "Ġstre": 1668,
      "ĠDaddy": 1669,
      "Ġclosed": 1670,
      "Ġstuck": 1671,
      "eared": 1672,
      "Mia": 1673,
      "ĠJill": 1674,
      "Ġheart": 1675,
      "Ġtown": 1676,
      "Ġfeels": 1677,
      "chool": 1678,
      "Ġbelieve": 1679,
      "Ġwouldn": 1680,
      "ĠMr": 1681,
      "asket": 1682,
      "Ġbasket": 1683,
      "Ġmix": 1684,
      "Ġteacher": 1685,
      "Ġcray": 1686,
      "Ġcour": 1687,
      "Ġbutt": 1688,
      "Ġatt": 1689,
      "Ġeating": 1690,
      "Ġhit": 1691,
      "Ġschool": 1692,
      "iting": 1693,
      "Ġchair": 1694,
      "ĠMolly": 1695,
      "Ġpushed": 1696,
      "Ġbrown": 1697,
      "Ġyard": 1698,
      "TMt": 1699,
      "Ġgentle": 1700,
      "Ġpack": 1701,
      "Ġmin": 1702,
      "Ġcourse": 1703,
      "Ġneigh": 1704,
      "Ġwithout": 1705,
      "br": 1706,
      "Ġclapped": 1707,
      "issed": 1708,
      "ord": 1709,
      "ts": 1710,
      "umb": 1711,
      "Ġhigher": 1712,
      "Ġpers": 1713,
      "pping": 1714,
      "Ġsmo": 1715,
      "Ġsec": 1716,
      "Ġneighb": 1717,
      "Ġswings": 1718,
      "Ġaccident": 1719,
      "Ġfairy": 1720,
      "Lila": 1721,
      "ier": 1722,
      "vel": 1723,
      "Ġtoday": 1724,
      "orrow": 1725,
      "Ġgames": 1726,
      "Ġwelcome": 1727,
      "Ġdry": 1728,
      "Ġstand": 1729,
      "Ġnoises": 1730,
      "ors": 1731,
      "Ġdrove": 1732,
      "Ġpocket": 1733,
      "Ġthrow": 1734,
      "Ġsuddenly": 1735,
      "ventually": 1736,
      "Ġforget": 1737,
      "Ġlon": 1738,
      "Ġturns": 1739,
      "Ġhugs": 1740,
      "Ġpiece": 1741,
      "Ġcheered": 1742,
      "ract": 1743,
      "Ġfree": 1744,
      "Ġben": 1745,
      "Ġlonely": 1746,
      "Ġfence": 1747,
      "Ġhappen": 1748,
      "Ġwings": 1749,
      "cy": 1750,
      "ho": 1751,
      "ourn": 1752,
      "Ġneck": 1753,
      "Ġjourn": 1754,
      "Ġlonger": 1755,
      "Ġsang": 1756,
      "ible": 1757,
      "Ġexplained": 1758,
      "ead": 1759,
      "Ġsea": 1760,
      "Ġalong": 1761,
      "Ġsoup": 1762,
      "Ġcorn": 1763,
      "Finally": 1764,
      "Ġstories": 1765,
      "Ġlate": 1766,
      "Ġupset": 1767,
      "Ġwell": 1768,
      "itting": 1769,
      "Ġshoes": 1770,
      "Ġinst": 1771,
      "Ġsecret": 1772,
      "Ġadventures": 1773,
      "Ġmiss": 1774,
      "Ġmat": 1775,
      "Ġstars": 1776,
      "Ġtrou": 1777,
      "Ġcaught": 1778,
      "phant": 1779,
      "Ġwhe": 1780,
      "ches": 1781,
      "Ġsinging": 1782,
      "Ġph": 1783,
      "Ġrocks": 1784,
      "oun": 1785,
      "Ġbucket": 1786,
      "Ġlunch": 1787,
      "ape": 1788,
      "ces": 1789,
      "Ġswam": 1790,
      "Ġdropped": 1791,
      "Ġdist": 1792,
      "Ġwish": 1793,
      "Ġyoung": 1794,
      "Ġshook": 1795,
      "ocked": 1796,
      "Ġdrink": 1797,
      "Ġelephant": 1798,
      "Ġbring": 1799,
      "Ġmoved": 1800,
      "yard": 1801,
      "ment": 1802,
      "Ġplac": 1803,
      "Ġbelong": 1804,
      "Ġjuice": 1805,
      "Ġnaught": 1806,
      "ountain": 1807,
      "Ġstar": 1808,
      "Ġnaughty": 1809,
      "Ġbackyard": 1810,
      "ek": 1811,
      "llo": 1812,
      "Ġmine": 1813,
      "ĠGrandma": 1814,
      "fused": 1815,
      "Ġjar": 1816,
      "Ġstreet": 1817,
      "bow": 1818,
      "Ġtom": 1819,
      "Ġpast": 1820,
      "Ġkey": 1821,
      "ĠThank": 1822,
      "Ġtakes": 1823,
      "Ġtaking": 1824,
      "ĠMary": 1825,
      "Ġapple": 1826,
      "Do": 1827,
      "Ġshapes": 1828,
      "Ġpurp": 1829,
      "Ġorange": 1830,
      "Ġexploring": 1831,
      "ward": 1832,
      "Ġshop": 1833,
      "Ġowl": 1834,
      "Ġcou": 1835,
      "ush": 1836,
      "ub": 1837,
      "Ġnothing": 1838,
      "Ġexp": 1839,
      "Ġnearby": 1840,
      "Ġpig": 1841,
      "bby": 1842,
      "ĠEmma": 1843,
      "Ġwise": 1844,
      "Ġnose": 1845,
      "Ġwondered": 1846,
      "Ġresp": 1847,
      "Ġwoke": 1848,
      "ĠFluffy": 1849,
      "ung": 1850,
      "Ġcomes": 1851,
      "Ġes": 1852,
      "Ġseemed": 1853,
      "Ġcow": 1854,
      "col": 1855,
      "Ġbusy": 1856,
      "Ġaf": 1857,
      "Ġdes": 1858,
      "Ġsounds": 1859,
      "Ġmail": 1860,
      "Ġbench": 1861,
      "Ġtiny": 1862,
      "Ġrelie": 1863,
      "Ġsick": 1864,
      "Ġinv": 1865,
      "Ġstu": 1866,
      "Ġpurple": 1867,
      "Ġmark": 1868,
      "cing": 1869,
      "Ġrainbow": 1870,
      "aughter": 1871,
      "Ġarms": 1872,
      "Ġca": 1873,
      "Ġthough": 1874,
      "adow": 1875,
      "Ġmad": 1876,
      "Ġnest": 1877,
      "ions": 1878,
      "fish": 1879,
      "ose": 1880,
      "ining": 1881,
      "Ġmil": 1882,
      "Ġyear": 1883,
      "sy": 1884,
      "pper": 1885,
      "thday": 1886,
      "ese": 1887,
      "Ġ3": 1888,
      "Ġsitting": 1889,
      "cks": 1890,
      "Ġob": 1891,
      "Ġdriver": 1892,
      "And": 1893,
      "Ġholding": 1894,
      "Ġround": 1895,
      "Ġking": 1896,
      "Ġcarry": 1897,
      "raid": 1898,
      "read": 1899,
      "Ġafraid": 1900,
      "ity": 1901,
      "Ġbranch": 1902,
      "ittens": 1903,
      "Ġforever": 1904,
      "ĠInside": 1905,
      "Ġcir": 1906,
      "Ġwhist": 1907,
      "Ġhello": 1908,
      "Ġgift": 1909,
      "ĠO": 1910,
      "Ġkite": 1911,
      "weet": 1912,
      "Ġspoon": 1913,
      "board": 1914,
      "Ġboun": 1915,
      "vered": 1916,
      "Ġcute": 1917,
      "Ġdaughter": 1918,
      "Ġpeace": 1919,
      "Ġshell": 1920,
      "Ġlift": 1921,
      "idge": 1922,
      "to": 1923,
      "Ġfit": 1924,
      "Ġcoat": 1925,
      "Ġswimming": 1926,
      "Ġhuge": 1927,
      "uched": 1928,
      "Ġtouched": 1929,
      "ĠCome": 1930,
      "Ġbread": 1931,
      "Ġpatient": 1932,
      "Of": 1933,
      "ours": 1934,
      "let": 1935,
      "Ġletter": 1936,
      "Ġbirthday": 1937,
      "Ġpromise": 1938,
      "Ġgrab": 1939,
      "Ġrelieved": 1940,
      "ĠFinally": 1941,
      "cer": 1942,
      "sting": 1943,
      "Ġgives": 1944,
      "Ġaccidentally": 1945,
      "Ġwra": 1946,
      "eth": 1947,
      "Ġputs": 1948,
      "Ġband": 1949,
      "Ġhope": 1950,
      "Ġmilk": 1951,
      "gg": 1952,
      "Ġbottle": 1953,
      "Ġcreature": 1954,
      "Hey": 1955,
      "Ġfing": 1956,
      "shine": 1957,
      "Ġdays": 1958,
      "Ġcheese": 1959,
      "Ġintere": 1960,
      "Ġlife": 1961,
      "Ġlaughing": 1962,
      "Ġgigg": 1963,
      "Ġcozy": 1964,
      "Ġcollect": 1965,
      "alm": 1966,
      "Ġlucky": 1967,
      "Ġonto": 1968,
      "Ġexciting": 1969,
      "Ġkick": 1970,
      "ĠSammy": 1971,
      "Ġret": 1972,
      "Ġmist": 1973,
      "Ġpower": 1974,
      "Ġspin": 1975,
      "Ġcave": 1976,
      "Ġcomfort": 1977,
      "Ġdisco": 1978,
      "Ġjourney": 1979,
      "Ġact": 1980,
      "Ġsunshine": 1981,
      "og": 1982,
      "Ġsunny": 1983,
      "gged": 1984,
      "Ġfan": 1985,
      "Ġear": 1986,
      "Ġbush": 1987,
      "Later": 1988,
      "Ġinstead": 1989,
      "Ġreturn": 1990,
      "ped": 1991,
      "ten": 1992,
      "arp": 1993,
      "Ġpudd": 1994,
      "Ġpointed": 1995,
      "Ġinc": 1996,
      "ness": 1997,
      "Ġsmiling": 1998,
      "Ġimag": 1999,
      "Ġeas": 2000,
      "ize": 2001,
      "ĠMama": 2002,
      "Ġsearched": 2003,
      "els": 2004,
      "Ġhoney": 2005,
      "itch": 2006,
      "Ġsharp": 2007,
      "Ġroad": 2008,
      "Ġanyone": 2009,
      "Ġhor": 2010,
      "ĠSoon": 2011,
      "Ġtalked": 2012,
      "Ġspo": 2013,
      "Ġbought": 2014,
      "oman": 2015,
      "ball": 2016,
      "Ġlater": 2017,
      "Ġsuc": 2018,
      "Ġwoman": 2019,
      "Ġsandw": 2020,
      "Ġplane": 2021,
      "Ġgather": 2022,
      "blem": 2023,
      "Tommy": 2024,
      "Ġproblem": 2025,
      "Ġsnowman": 2026,
      "Ġperson": 2027,
      "mer": 2028,
      "Ġwatching": 2029,
      "unt": 2030,
      "Ġcrayons": 2031,
      "Ġsmelled": 2032,
      "Ġhealthy": 2033,
      "Ġrope": 2034,
      "Ġtasty": 2035,
      "irt": 2036,
      "Ġtrouble": 2037,
      "Good": 2038,
      "Ġmeet": 2039,
      "Ġce": 2040,
      "Ġsu": 2041,
      "Ġducks": 2042,
      "round": 2043,
      "Ġpop": 2044,
      "Ġloves": 2045,
      "Ġkiss": 2046,
      "Bob": 2047,
      "itten": 2048,
      "Ġpile": 2049,
      "een": 2050,
      "Ġclouds": 2051,
      "Ġent": 2052,
      "Ġapples": 2053,
      "Ġshining": 2054,
      "Ġpar": 2055,
      "ove": 2056,
      "Ġstorm": 2057,
      "Ġspid": 2058,
      "Ġbutton": 2059,
      "Ġinteresting": 2060,
      "Ġmach": 2061,
      "Ġzoom": 2062,
      "amed": 2063,
      "Ġorgan": 2064,
      "Ġcard": 2065,
      "Ġadm": 2066,
      "Ġzoo": 2067,
      "ĠTweet": 2068,
      "Ġpres": 2069,
      "Ġwide": 2070,
      "Ġclever": 2071,
      "Ġres": 2072,
      "ont": 2073,
      "Ġfeather": 2074,
      "Ġmatter": 2075,
      "owed": 2076,
      "Ġpill": 2077,
      "ale": 2078,
      "eb": 2079,
      "ĠSomet": 2080,
      "ndp": 2081,
      "Ġbark": 2082,
      "Ġhon": 2083,
      "Ġpract": 2084,
      "ĠWith": 2085,
      "Ġprot": 2086,
      "aur": 2087,
      "lla": 2088,
      "Ġap": 2089,
      "Ġrespect": 2090,
      "Ġeag": 2091,
      "Ġfront": 2092,
      "Ġscreamed": 2093,
      "epend": 2094,
      "Ġgoes": 2095,
      "ail": 2096,
      "Ġmud": 2097,
      "Ġseat": 2098,
      "Ġprotect": 2099,
      "Ġneighbor": 2100,
      "Ġsaf": 2101,
      "Ġshr": 2102,
      "Ġquest": 2103,
      "ex": 2104,
      "Ġdanced": 2105,
      "Ġhorse": 2106,
      "isa": 2107,
      "Ġsur": 2108,
      "Ġtrip": 2109,
      "Ġanswer": 2110,
      "Ġpuzz": 2111,
      "Ġasleep": 2112,
      "Lucy": 2113,
      "Ġvill": 2114,
      "Ġpresent": 2115,
      "Ġmyster": 2116,
      "Ġspotted": 2117,
      "Ġtries": 2118,
      "Ġappeared": 2119,
      "St": 2120,
      "Ġsnake": 2121,
      "erly": 2122,
      "Come": 2123,
      "Ġteach": 2124,
      "Ġwhole": 2125,
      "Ġpath": 2126,
      "Ġgiant": 2127,
      "Ġwild": 2128,
      "Ġlovely": 2129,
      "Ġcheer": 2130,
      "ching": 2131,
      "Ġphone": 2132,
      "Ġslid": 2133,
      "Ġplaces": 2134,
      "Ġwhich": 2135,
      "ÅĵI": 2136,
      "Ġdi": 2137,
      "Ġwearing": 2138,
      "Ġteeth": 2139,
      "Ġdirt": 2140,
      "Ġforgive": 2141,
      "Ġrolled": 2142,
      "oose": 2143,
      "Ġconfused": 2144,
      "izz": 2145,
      "ĠGo": 2146,
      "ular": 2147,
      "Just": 2148,
      "Ġtasted": 2149,
      "Ġminut": 2150,
      "ones": 2151,
      "Ġgently": 2152,
      "Ġimpress": 2153,
      "Ġval": 2154,
      "Ġcouch": 2155,
      "Ġtun": 2156,
      "Ġfaces": 2157,
      "Ġthin": 2158,
      "Every": 2159,
      "Ġrude": 2160,
      "ĠMittens": 2161,
      "ert": 2162,
      "ĠHow": 2163,
      "ssed": 2164,
      "Ġpass": 2165,
      "Ġcalm": 2166,
      "Ġlive": 2167,
      "itty": 2168,
      "Ġmind": 2169,
      "ndpa": 2170,
      "Ġspent": 2171,
      "Ġsplas": 2172,
      "ĠJimmy": 2173,
      "Jim": 2174,
      "Ġpretended": 2175,
      "Ġmed": 2176,
      "Ġpan": 2177,
      "cean": 2178,
      "Ġocean": 2179,
      "Ġash": 2180,
      "Ġfeet": 2181,
      "In": 2182,
      "Ġsupp": 2183,
      "Ġsal": 2184,
      "Ġlad": 2185,
      "nic": 2186,
      "la": 2187,
      "Ġser": 2188,
      "Ġpour": 2189,
      "Ġpicnic": 2190,
      "Ġcoin": 2191,
      "Ġmachine": 2192,
      "Ġlay": 2193,
      "unk": 2194,
      "Molly": 2195,
      "Ġsack": 2196,
      "Ġcorner": 2197,
      "Ġring": 2198,
      "Ġwrite": 2199,
      "Ġdrive": 2200,
      "Ġworm": 2201,
      "Ġbugs": 2202,
      "Ġspider": 2203,
      "Ġoven": 2204,
      "Ġwave": 2205,
      "Ġchocol": 2206,
      "Mum": 2207,
      "Ġemb": 2208,
      "Ġpush": 2209,
      "Ġbuilding": 2210,
      "hile": 2211,
      "Ġsmooth": 2212,
      "Ġlast": 2213,
      "Ġign": 2214,
      "Ġtomorrow": 2215,
      "Ġcookie": 2216,
      "Ġhelpful": 2217,
      "umber": 2218,
      "arge": 2219,
      "Ġcann": 2220,
      "Ġcart": 2221,
      "Ġhiding": 2222,
      "Ġrec": 2223,
      "als": 2224,
      "Ġwip": 2225,
      "Ġfurry": 2226,
      "Ġladder": 2227,
      "Ġremind": 2228,
      "Ġcannot": 2229,
      "Ġmountain": 2230,
      "lex": 2231,
      "ator": 2232,
      "Ġtid": 2233,
      "Ġblew": 2234,
      "ĠEmily": 2235,
      "Ġbell": 2236,
      "Ġban": 2237,
      "ato": 2238,
      "Ġbubble": 2239,
      "Ġchick": 2240,
      "Ġpaw": 2241,
      "Ġspread": 2242,
      "Ġtalking": 2243,
      "ife": 2244,
      "Ġfighting": 2245,
      "Ġfold": 2246,
      "Ġfinish": 2247,
      "Ġtool": 2248,
      "ĠSometimes": 2249,
      "Ġdelight": 2250,
      "Ġembar": 2251,
      "Ġleaf": 2252,
      "Ġembarra": 2253,
      "Soon": 2254,
      "Ġsel": 2255,
      "Ġwore": 2256,
      "Ġpool": 2257,
      "Ġrob": 2258,
      "Ġfoot": 2259,
      "Ġpuddle": 2260,
      "Ġsongs": 2261,
      "Ġshy": 2262,
      "Ġknee": 2263,
      "ighed": 2264,
      "Ġspray": 2265,
      "Ġeventually": 2266,
      "ĠCh": 2267,
      "Ġrep": 2268,
      "Ġneckl": 2269,
      "Ġwaiting": 2270,
      "Ġmaybe": 2271,
      "Ġchocolate": 2272,
      "mo": 2273,
      "Ġnet": 2274,
      "Ġchased": 2275,
      "Ġbat": 2276,
      "Ġwhenever": 2277,
      "Ġfixed": 2278,
      "oph": 2279,
      "Ġstret": 2280,
      "ĠJust": 2281,
      "ĠJenny": 2282,
      "Ġbarked": 2283,
      "Ġlarge": 2284,
      "ult": 2285,
      "Ġselfish": 2286,
      "Ġstring": 2287,
      "Ġcoo": 2288,
      "Ġsol": 2289,
      "ĠPlease": 2290,
      "lebr": 2291,
      "ĠEverywhere": 2292,
      "Ġwash": 2293,
      "Ġpeaceful": 2294,
      "Ġwhistle": 2295,
      "Ġcelebr": 2296,
      "ĠSt": 2297,
      "Ġstir": 2298,
      "Ġcarrots": 2299,
      "Ġant": 2300,
      "Ġcross": 2301,
      "urse": 2302,
      "Ġspe": 2303,
      "Ġcreative": 2304,
      "Ġplate": 2305,
      "Ġtaste": 2306,
      "Ġhum": 2307,
      "Ġbanan": 2308,
      "Ġgen": 2309,
      "Ġrobot": 2310,
      "Ġtidy": 2311,
      "ĠLe": 2312,
      "My": 2313,
      "Ġmoon": 2314,
      "Ġknocked": 2315,
      "iger": 2316,
      "Ġtrust": 2317,
      "Ġcrab": 2318,
      "orry": 2319,
      "Ġhears": 2320,
      "Ġtells": 2321,
      "box": 2322,
      "Ġcloth": 2323,
      "Ġvillage": 2324,
      "Ġmissed": 2325,
      "Ġstone": 2326,
      "ungle": 2327,
      "Ġstra": 2328,
      "Ġcolour": 2329,
      "Ġembarrassed": 2330,
      "airs": 2331,
      "Ġjungle": 2332,
      "Ġstep": 2333,
      "Ġrocket": 2334,
      "Ġdecor": 2335,
      "ĠTheir": 2336,
      "ĠSome": 2337,
      "ĠJake": 2338,
      "Please": 2339,
      "Ġspicy": 2340,
      "Ġnecklace": 2341,
      "Dad": 2342,
      "elly": 2343,
      "old": 2344,
      "Ġtreats": 2345,
      "Ġshelf": 2346,
      "Ġscar": 2347,
      "getable": 2348,
      "Ġhel": 2349,
      "umpy": 2350,
      "arm": 2351,
      "Ġshirt": 2352,
      "Ġvegetable": 2353,
      "Ġforward": 2354,
      "Ġsplash": 2355,
      "dge": 2356,
      "Ġtea": 2357,
      "llie": 2358,
      "Ġsticks": 2359,
      "Ġlegs": 2360,
      "Ġemp": 2361,
      "Now": 2362,
      "Ġempty": 2363,
      "inted": 2364,
      "Ġsave": 2365,
      "hnn": 2366,
      "Ġjumping": 2367,
      "Ġnut": 2368,
      "Ġple": 2369,
      "ĠAl": 2370,
      "Ġgray": 2371,
      "Ġwhis": 2372,
      "Ġsharing": 2373,
      "Ġ'": 2374,
      "Ġgrew": 2375,
      "Ġber": 2376,
      "Ġsheep": 2377,
      "aking": 2378,
      "Ġtightly": 2379,
      "ĠAnn": 2380,
      "Mama": 2381,
      "Ġlanded": 2382,
      "most": 2383,
      "Ġgener": 2384,
      "Ġmeant": 2385,
      "Ġdeter": 2386,
      "Ġashamed": 2387,
      "Ġbal": 2388,
      "Ġnods": 2389,
      "Ġdisappo": 2390,
      "Ġpillow": 2391,
      "ĠLisa": 2392,
      "Ġdeterm": 2393,
      "Ġalmost": 2394,
      "ird": 2395,
      "ĠTV": 2396,
      "ying": 2397,
      "Ġhonest": 2398,
      "hnny": 2399,
      "Ġpizz": 2400,
      "ian": 2401,
      "Ġsour": 2402,
      "Ġgold": 2403,
      "ĠWhy": 2404,
      "ĠDon": 2405,
      "Ġjew": 2406,
      "Be": 2407,
      "dle": 2408,
      "Ġbreath": 2409,
      "Ġcarried": 2410,
      "Ġmeadow": 2411,
      "Ġunderstood": 2412,
      "ano": 2413,
      "ĠOn": 2414,
      "Ġyelled": 2415,
      "Ġstood": 2416,
      "Ġthese": 2417,
      "Ġvan": 2418,
      "erp": 2419,
      "Ġpolice": 2420,
      "Ġdrew": 2421,
      "den": 2422,
      "ground": 2423,
      "Ġseed": 2424,
      "Stop": 2425,
      "Ġpay": 2426,
      "Ġkitten": 2427,
      "Ġwhisp": 2428,
      "Ġsnacks": 2429,
      "To": 2430,
      "Ġprince": 2431,
      "ned": 2432,
      "Ġsuccess": 2433,
      "Ġfear": 2434,
      "Ġbored": 2435,
      "Ġsparkly": 2436,
      "gly": 2437,
      "Ġav": 2438,
      "Ġlem": 2439,
      "ital": 2440,
      "aul": 2441,
      "Ġgun": 2442,
      "Ġugly": 2443,
      "ony": 2444,
      "Ġgas": 2445,
      "Ġshore": 2446,
      "Ġvase": 2447,
      "Ġdisappointed": 2448,
      "Ġhosp": 2449,
      "hin": 2450,
      "Ġline": 2451,
      "ork": 2452,
      "ustr": 2453,
      "kin": 2454,
      "Ġhours": 2455,
      "ĠTeddy": 2456,
      "Ġhospital": 2457,
      "Ġgroup": 2458,
      "ĠRex": 2459,
      "Ġclass": 2460,
      "Ġpizza": 2461,
      "itter": 2462,
      "vous": 2463,
      "Ġseek": 2464,
      "Ġplants": 2465,
      "iff": 2466,
      "Ġblow": 2467,
      "Ġknowing": 2468,
      "Ġhidden": 2469,
      "Ġgenerous": 2470,
      "Ġreturned": 2471,
      "Ġcries": 2472,
      "oop": 2473,
      "Ġtent": 2474,
      "ĠZ": 2475,
      "Ġpuzzle": 2476,
      "Sarah": 2477,
      "ĠEven": 2478,
      "Ġpri": 2479,
      "Ġmessy": 2480,
      "Ġeasy": 2481,
      "Ġfeed": 2482,
      "Ġpoor": 2483,
      "Ġglass": 2484,
      "Ġfrustr": 2485,
      "Ġstanding": 2486,
      "Ġsleepy": 2487,
      "Ġpin": 2488,
      "Ġwaves": 2489,
      "Ġjelly": 2490,
      "Ġtest": 2491,
      "Ġsighed": 2492,
      "Ġfancy": 2493,
      "There": 2494,
      "Ġflag": 2495,
      "Ġsandwich": 2496,
      "Ġburn": 2497,
      "Sorry": 2498,
      "ĠMum": 2499,
      "ĠTogether": 2500,
      "Ġthankful": 2501,
      "Where": 2502,
      "Ġbedroom": 2503,
      "Ġpowerful": 2504,
      "Ġship": 2505,
      "Ġtick": 2506,
      "Ġtaught": 2507,
      "body": 2508,
      "Ġscarf": 2509,
      "Ġsold": 2510,
      "Ġkissed": 2511,
      "Ġner": 2512,
      "Ġcirc": 2513,
      "ĠBe": 2514,
      "lower": 2515,
      "Ġcrown": 2516,
      "Ġpir": 2517,
      "Ġtwirl": 2518,
      "era": 2519,
      "Ġboring": 2520,
      "'d": 2521,
      "Ġdeer": 2522,
      "Ġmot": 2523,
      "ote": 2524,
      "Ġnervous": 2525,
      "Ġreg": 2526,
      "Ġcaterp": 2527,
      "Ġcaterpill": 2528,
      "mb": 2529,
      "Ġmysterious": 2530,
      "Ġtears": 2531,
      "arl": 2532,
      "Ġfrustrated": 2533,
      "Ġpolite": 2534,
      "Ġspoil": 2535,
      "Are": 2536,
      "af": 2537,
      "work": 2538,
      "assed": 2539,
      "Ġpassed": 2540,
      "Ġscr": 2541,
      "Ġcloset": 2542,
      "Ġoften": 2543,
      "oof": 2544,
      "Ġhur": 2545,
      "Ġyourself": 2546,
      "Ġdrop": 2547,
      "Ġminutes": 2548,
      "Ġhang": 2549,
      "obby": 2550,
      "Ġdetermined": 2551,
      "Ġfig": 2552,
      "Ġleg": 2553,
      "pack": 2554,
      "Ġrad": 2555,
      "Ġclown": 2556,
      "Ġgets": 2557,
      "Jane": 2558,
      "Ġexcite": 2559,
      "ensive": 2560,
      "selves": 2561,
      "issors": 2562,
      "ina": 2563,
      "Ġfil": 2564,
      "Ġgate": 2565,
      "Ġcap": 2566,
      "Ġexpensive": 2567,
      "Ġbridge": 2568,
      "Ġchew": 2569,
      "Ġdancing": 2570,
      "iddle": 2571,
      "Ġchest": 2572,
      "Ġgathered": 2573,
      "light": 2574,
      "Ġscissors": 2575,
      "Ġpicks": 2576,
      "Ġflut": 2577,
      "Ġsaved": 2578,
      "ets": 2579,
      "Ġfinger": 2580,
      "usie": 2581,
      "illed": 2582,
      "Ġwagged": 2583,
      "ates": 2584,
      "ĠOK": 2585,
      "ual": 2586,
      "Ġesc": 2587,
      "izzy": 2588,
      "Ġcaterpillar": 2589,
      "Ġwolf": 2590,
      "ĠLeo": 2591,
      "Ġboss": 2592,
      "Ġwander": 2593,
      "osaur": 2594,
      "Ġgrumpy": 2595,
      "Ġdrum": 2596,
      "Ġcomfortable": 2597,
      "Ġlock": 2598,
      "Ġpacked": 2599,
      "Ġqueen": 2600,
      "Ġanswered": 2601,
      "ond": 2602,
      "Ġhopping": 2603,
      "Ġworking": 2604,
      "ots": 2605,
      "Ġspend": 2606,
      "Ġdogs": 2607,
      "Ġmistake": 2608,
      "Ġexcitement": 2609,
      "Ġlit": 2610,
      "Their": 2611,
      "Ġmummy": 2612,
      "Ġdinosaur": 2613,
      "Ġstuff": 2614,
      "Ġtaken": 2615,
      "ĠPeter": 2616,
      "Ġcand": 2617,
      "ĠBl": 2618,
      "Ġknight": 2619,
      "Ġvegetables": 2620,
      "uce": 2621,
      "Ġmedic": 2622,
      "Ġwheel": 2623,
      "Ġwalks": 2624,
      "Ġdrawing": 2625,
      "Ġmiddle": 2626,
      "Ġpress": 2627,
      "Ġbone": 2628,
      "ggs": 2629,
      "Ġeggs": 2630,
      "ĠBr": 2631,
      "Ġtrue": 2632,
      "Ġlazy": 2633,
      "que": 2634,
      "Ġlose": 2635,
      "Ġgiggled": 2636,
      "Ġcrawl": 2637,
      "Ġones": 2638,
      "Ġruined": 2639,
      "Ġfruits": 2640,
      "Ġmir": 2641,
      "Ġwis": 2642,
      "Who": 2643,
      "Ġdest": 2644,
      "ugar": 2645,
      "Ġclap": 2646,
      "Ġmedicine": 2647,
      "Ġadd": 2648,
      "Ġnumber": 2649,
      "Ġbathroom": 2650,
      "Ġsmelly": 2651,
      "iness": 2652,
      "Ġasking": 2653,
      "ecially": 2654,
      "Ġexam": 2655,
      "Ġfake": 2656,
      "Ġsugar": 2657,
      "Ġfeathers": 2658,
      "Ġsight": 2659,
      "Ġstones": 2660,
      "Ġbrush": 2661,
      "Ġgar": 2662,
      "Ġlicked": 2663,
      "Ġsweetie": 2664,
      "Ġtape": 2665,
      "pecially": 2666,
      "Ġespecially": 2667,
      "ror": 2668,
      "aser": 2669,
      "Ġteam": 2670,
      "Ġweak": 2671,
      "Ġchange": 2672,
      "ushed": 2673,
      "Ġbody": 2674,
      "Ġdistance": 2675,
      "Ġnod": 2676,
      "Ġroar": 2677,
      "ella": 2678,
      "Ġdrank": 2679,
      "Ġpleased": 2680,
      "elp": 2681,
      "Ġlead": 2682,
      "Me": 2683,
      "Ġmatch": 2684,
      "Ġbake": 2685,
      "Ġpray": 2686,
      "Ġcri": 2687,
      "Ġcage": 2688,
      "Ġsplashed": 2689,
      "Ġfluffy": 2690,
      "Ġballs": 2691,
      "Ġmic": 2692,
      "ĠIf": 2693,
      "Ġyours": 2694,
      "ĠNo": 2695,
      "Ġmov": 2696,
      "ating": 2697,
      "Ġlying": 2698,
      "Ġcalling": 2699,
      "aged": 2700,
      "Ġfis": 2701,
      "Ġsailed": 2702,
      "Ġmoving": 2703,
      "uggest": 2704,
      "Ġlemon": 2705,
      "Ġglow": 2706,
      "Ġtie": 2707,
      "Ġsuggest": 2708,
      "Ġdisappeared": 2709,
      "Ġboard": 2710,
      "hip": 2711,
      "Ġsell": 2712,
      "Ġnoisy": 2713,
      "Ġglue": 2714,
      "ha": 2715,
      "Ġwrote": 2716,
      "Ġsoap": 2717,
      "Ġclear": 2718,
      "ĠJohnny": 2719,
      "ete": 2720,
      "Ġrelax": 2721,
      "Ġrid": 2722,
      "Ġok": 2723,
      "Ġweek": 2724,
      "Ġeld": 2725,
      "Help": 2726,
      "Ġdecide": 2727,
      "Ġbecome": 2728,
      "Ġincred": 2729,
      "Ġmoms": 2730,
      "Ġmeasure": 2731,
      "Ġjuicy": 2732,
      "Ġmirror": 2733,
      "Ġcovered": 2734,
      "Jimmy": 2735,
      "alous": 2736,
      "Ġplayground": 2737,
      "Ġshows": 2738,
      "Ġjealous": 2739,
      "yal": 2740,
      "Ġhorn": 2741,
      "Ġquestions": 2742,
      "Ġfine": 2743,
      "Ġrare": 2744,
      "Ġcontent": 2745,
      "Ġboys": 2746,
      "ination": 2747,
      "Ġcraw": 2748,
      "imp": 2749,
      "Ġeager": 2750,
      "Ġcrawled": 2751,
      "Ġtowel": 2752,
      "ĠAt": 2753,
      "Ġcheck": 2754,
      "ipp": 2755,
      "Ġskipped": 2756,
      "Ġdig": 2757,
      "Ġfather": 2758,
      "Ġind": 2759,
      "Ġcleaned": 2760,
      "enny": 2761,
      "Ġext": 2762,
      "Ġord": 2763,
      "Ġfamous": 2764,
      "Ġeye": 2765,
      "Ġtwist": 2766,
      "Ġneeds": 2767,
      "Sally": 2768,
      "Ġshoot": 2769,
      "ĠBlue": 2770,
      "Ġgarage": 2771,
      "Ġjoke": 2772,
      "Ġincredible": 2773,
      "ĠEnd": 2774,
      "Ġtrucks": 2775,
      "eez": 2776,
      "Ġed": 2777,
      "umbled": 2778,
      "Ġsword": 2779,
      "Ġtiger": 2780,
      "Ġloyal": 2781,
      "Jill": 2782,
      "illi": 2783,
      "Ġhose": 2784,
      "Ġbubbles": 2785,
      "ory": 2786,
      "Ġmap": 2787,
      "Ġorganized": 2788,
      "Ġunus": 2789,
      "Ġhappening": 2790,
      "ti": 2791,
      "Ġrealised": 2792,
      "Ġbranches": 2793,
      "Ġlamp": 2794,
      "Ġword": 2795,
      "fic": 2796,
      "Ġborrow": 2797,
      "Ġtag": 2798,
      "Ġdiscovered": 2799,
      "Ġmotor": 2800,
      "Ġunusual": 2801,
      "Ġdish": 2802,
      "ipper": 2803,
      "Ġhurts": 2804,
      "Ġwand": 2805,
      "Ġextra": 2806,
      "cil": 2807,
      "Ġsil": 2808,
      "Ġfrown": 2809,
      "Ġknife": 2810,
      "Ġrich": 2811,
      "Ġpencil": 2812,
      "Ġelderly": 2813,
      "Ġthick": 2814,
      "Ġballoons": 2815,
      "lies": 2816,
      "Ġmod": 2817,
      "Ġwhale": 2818,
      "Ġcover": 2819,
      "Ġdiffic": 2820,
      "Ġlouder": 2821,
      "Ġfigure": 2822,
      "Ġonce": 2823,
      "Ġcost": 2824,
      "port": 2825,
      "asing": 2826,
      "ique": 2827,
      "Ġfour": 2828,
      "Billy": 2829,
      "Ġguess": 2830,
      "Ġbottom": 2831,
      "keep": 2832,
      "Spot": 2833,
      "Ġdifficult": 2834,
      "ĠKitty": 2835,
      "Ġaw": 2836,
      "Ġtoug": 2837,
      "Ġlaughs": 2838,
      "Ġflash": 2839,
      "Ġcolourful": 2840,
      "ĠSp": 2841,
      "Ġunique": 2842,
      "Gra": 2843,
      "Ġang": 2844,
      "Ġcompet": 2845,
      "Ġarg": 2846,
      "Ġoffered": 2847,
      "Ġchase": 2848,
      "ery": 2849,
      "Ġham": 2850,
      "Ġshake": 2851,
      "Ġboxes": 2852,
      "Ġbalance": 2853,
      "fast": 2854,
      "imed": 2855,
      "Ġadded": 2856,
      "ĠMark": 2857,
      "Ġspun": 2858,
      "cept": 2859,
      "Ġturt": 2860,
      "Ġwrapped": 2861,
      "Ġhero": 2862,
      "Ġbarn": 2863,
      "Ġadventur": 2864,
      "Ġjewel": 2865,
      "Ġstraw": 2866,
      "Ġberries": 2867,
      "ately": 2868,
      "Ġcoins": 2869,
      "Ġkindness": 2870,
      "ĠLittle": 2871,
      "Ġgiving": 2872,
      "Ġbreakfast": 2873,
      "Ġlog": 2874,
      "?\".": 2875,
      "Ġchicken": 2876,
      "ages": 2877,
      "Sue": 2878,
      "Ġbloom": 2879,
      "ature": 2880,
      "Ġbald": 2881,
      "Ġgoat": 2882,
      "ured": 2883,
      "Ġbanana": 2884,
      "rag": 2885,
      "Ġmighty": 2886,
      "Ġnorm": 2887,
      "Ġadventurous": 2888,
      "Ġswan": 2889,
      "Ġdolp": 2890,
      "ye": 2891,
      "Ġfool": 2892,
      "Ġmanaged": 2893,
      "Ġfalls": 2894,
      "land": 2895,
      "Ġpump": 2896,
      "Ġlifted": 2897,
      "ym": 2898,
      "Ġtough": 2899,
      "How": 2900,
      "Ġcher": 2901,
      "Ġpointing": 2902,
      "ject": 2903,
      "Ġhelps": 2904,
      "uggled": 2905,
      "Well": 2906,
      "Ġdizzy": 2907,
      "Ġcircle": 2908,
      "Here": 2909,
      "Ġpee": 2910,
      "Joe": 2911,
      "Ġwagon": 2912,
      "alk": 2913,
      "olog": 2914,
      "Ġharder": 2915,
      "ouses": 2916,
      "Ġdreamed": 2917,
      "keeper": 2918,
      "Ġcompetit": 2919,
      "Ġweird": 2920,
      "Ġsmoke": 2921,
      "Ġmelt": 2922,
      "Ġloudly": 2923,
      "Ġnormal": 2924,
      "oppy": 2925,
      "Ġbelonged": 2926,
      "Ġbossy": 2927,
      "Ġmarket": 2928,
      "Ġimpressed": 2929,
      "Ġfat": 2930,
      "Ġears": 2931,
      "Ġgrown": 2932,
      "Ġwrap": 2933,
      "ĠSusie": 2934,
      "Ġapolog": 2935,
      "Ġskin": 2936,
      "Ġshape": 2937,
      "Ġhats": 2938,
      "ilt": 2939,
      "Ġknows": 2940,
      "Ġicy": 2941,
      "Ġstubb": 2942,
      "Ġlearning": 2943,
      "und": 2944,
      "emo": 2945,
      "Ġagainst": 2946,
      "ĠMy": 2947,
      "Ġsearch": 2948,
      "Ġhunt": 2949,
      "Ġhouses": 2950,
      "Ġdepend": 2951,
      "Ġscare": 2952,
      "Ġenjoying": 2953,
      "pes": 2954,
      "anged": 2955,
      "Ġmeans": 2956,
      "Ġfavour": 2957,
      "Ġharm": 2958,
      "Ġslipped": 2959,
      "ĠBrown": 2960,
      "Ġbrothers": 2961,
      "ĠRose": 2962,
      "Amy": 2963,
      "head": 2964,
      "Ġrough": 2965,
      "Ġpainting": 2966,
      "Ġedge": 2967,
      "reen": 2968,
      "Ġchoose": 2969,
      "Ġbrilli": 2970,
      "Ġgrace": 2971,
      "Ġrecord": 2972,
      "Ġbuttons": 2973,
      "Ġref": 2974,
      "Ġfright": 2975,
      "Ġstubborn": 2976,
      "apping": 2977,
      "ready": 2978,
      "Ġfavourite": 2979,
      "Ġshells": 2980,
      "Ġfoolish": 2981,
      "Ġjack": 2982,
      "Ġsafely": 2983,
      "Ġbrilliant": 2984,
      "Ġbatter": 2985,
      "Al": 2986,
      "Ġcudd": 2987,
      "ĠToday": 2988,
      "Ġtoast": 2989,
      "Ġfridge": 2990,
      "Ġcircles": 2991,
      "omed": 2992,
      "Ġspace": 2993,
      "Ġstri": 2994,
      "iv": 2995,
      "Ġguit": 2996,
      "Ġter": 2997,
      "Ġcro": 2998,
      "Ġhappiness": 2999,
      "rage": 3000,
      "Ġalready": 3001,
      "Ġrat": 3002,
      "Ġbitter": 3003,
      "Ġturtle": 3004,
      "aw": 3005,
      "erry": 3006,
      "Ġyog": 3007,
      "Ġwalls": 3008,
      "Ġoffice": 3009,
      "Ġlibr": 3010,
      "Ġwake": 3011,
      "Ġlaw": 3012,
      "Ġsounded": 3013,
      "Ġisland": 3014,
      "Ġstrawber": 3015,
      "Ġmixed": 3016,
      "edient": 3017,
      "Ġegg": 3018,
      "Ġsaying": 3019,
      "Ġclay": 3020,
      "Ġdreams": 3021,
      "Ġcrack": 3022,
      "Ġcheerful": 3023,
      "Mummy": 3024,
      "ext": 3025,
      "erg": 3026,
      "arth": 3027,
      "Ġtrunk": 3028,
      "iable": 3029,
      "Ġbags": 3030,
      "Ġcam": 3031,
      "Ġunl": 3032,
      "Ġsmaller": 3033,
      "Ġvalu": 3034,
      "Ġmovie": 3035,
      "Ġroof": 3036,
      "Ġescape": 3037,
      "ache": 3038,
      "Ġnosy": 3039,
      "Ġfier": 3040,
      "Ġguitar": 3041,
      "Ġshark": 3042,
      "Ġnotice": 3043,
      "Ġexcla": 3044,
      "Ġpoured": 3045,
      "Ġaccept": 3046,
      "Ġparrot": 3047,
      "Ġstronger": 3048,
      "Ġcab": 3049,
      "Ġstream": 3050,
      "Ġmagn": 3051,
      "Ġtunn": 3052,
      "sc": 3053,
      "Ġcrayon": 3054,
      "Ġobedient": 3055,
      "Ġinvited": 3056,
      "arry": 3057,
      "Ġweal": 3058,
      "Ġnicely": 3059,
      "Ġexclaimed": 3060,
      "Ġuseful": 3061,
      "Ġdependable": 3062,
      "Ġlow": 3063,
      "Ġtools": 3064,
      "ĠMrs": 3065,
      "Ġsuggested": 3066,
      "Ġreliable": 3067,
      "Ġcabin": 3068,
      "ĠBobby": 3069,
      "Ġfierce": 3070,
      "Ġtimes": 3071,
      "Ġproudly": 3072,
      "Ġterri": 3073,
      "Ġthu": 3074,
      "Ġcounted": 3075,
      "Ġscrat": 3076,
      "Ġfingers": 3077,
      "Ġrose": 3078,
      "Ġcity": 3079,
      "ado": 3080,
      "Ġindepend": 3081,
      "Ġshowing": 3082,
      "ola": 3083,
      "Ġstudy": 3084,
      "Ġpil": 3085,
      "ĠBu": 3086,
      "Ġlean": 3087,
      "irp": 3088,
      "Ġbushes": 3089,
      "Ġdesign": 3090,
      "Ġabove": 3091,
      "Ġexplored": 3092,
      "Ġhoop": 3093,
      "wards": 3094,
      "Ġtummy": 3095,
      "Ġjoined": 3096,
      "Ġfrightened": 3097,
      "corn": 3098,
      "Ġstumbled": 3099,
      "Ġdead": 3100,
      "Ġgem": 3101,
      "ĠElla": 3102,
      "Ġkicked": 3103,
      "Ġfountain": 3104,
      "Ġbirdie": 3105,
      "Ġspinning": 3106,
      "na": 3107,
      "cient": 3108,
      "Ġspoiled": 3109,
      "Ġtwig": 3110,
      "Ġfrag": 3111,
      "Ġdough": 3112,
      "Ġlocked": 3113,
      "Ġlights": 3114,
      "Ġsuccessful": 3115,
      "Ġthemselves": 3116,
      "Ġstove": 3117,
      "Ġusing": 3118,
      "Ġcop": 3119,
      "Ġmem": 3120,
      "kn": 3121,
      "Ġwiped": 3122,
      "Ġjog": 3123,
      "Ġbrightly": 3124,
      "Ġexcitedly": 3125,
      "Ġzip": 3126,
      "Ġvaluable": 3127,
      "Ġrode": 3128,
      "Ġenorm": 3129,
      "Ġtele": 3130,
      "Ġindependent": 3131,
      "Ġenormous": 3132,
      "amond": 3133,
      "Ġancient": 3134,
      "az": 3135,
      "Ġyarn": 3136,
      "Ġswe": 3137,
      "ÅĵLet": 3138,
      "Ġfre": 3139,
      "Ġbeak": 3140,
      "ĠEllie": 3141,
      "Ġcleaning": 3142,
      "ĠYour": 3143,
      "Ġthoughtful": 3144,
      "Ġkinds": 3145,
      "Ġdelicate": 3146,
      "anut": 3147,
      "Ġjam": 3148,
      "Ġbuilt": 3149,
      "Ġresc": 3150,
      "ention": 3151,
      "Ġseem": 3152,
      "Ġeng": 3153,
      "Ġdiamond": 3154,
      "Ġreminded": 3155,
      "ither": 3156,
      "Ġsteal": 3157,
      "Ġow": 3158,
      "Ġpopcorn": 3159,
      "inal": 3160,
      "ĠNemo": 3161,
      "Ġshadow": 3162,
      "ipe": 3163,
      "Ġthirst": 3164,
      "ĠPete": 3165,
      "orge": 3166,
      "Ġholds": 3167,
      "Ġshone": 3168,
      "Ġsniff": 3169,
      "Ġfragile": 3170,
      "Ġenvel": 3171,
      "Ġways": 3172,
      "mbre": 3173,
      "oot": 3174,
      "ĠDan": 3175,
      "Ġadmired": 3176,
      "Ġumbre": 3177,
      "Ġstat": 3178,
      "Ġflute": 3179,
      "iginal": 3180,
      "Ġbean": 3181,
      "Ġtank": 3182,
      "Ġbounce": 3183,
      "Ġpractice": 3184,
      "uth": 3185,
      "upid": 3186,
      "known": 3187,
      "Ġbees": 3188,
      "ĠFin": 3189,
      "Ġmarble": 3190,
      "eeze": 3191,
      "Ġflashlight": 3192,
      "Ġchanged": 3193,
      "Ġgrandpa": 3194,
      "ĠDucky": 3195,
      "Ġcostum": 3196,
      "illa": 3197,
      "Ġwhispered": 3198,
      "Ġbump": 3199,
      "Ġrubb": 3200,
      "Ġfinding": 3201,
      "Ġbrace": 3202,
      "Ġpainted": 3203,
      "Ġhelm": 3204,
      "Ġpumpkin": 3205,
      "Ġhalf": 3206,
      "Ġlab": 3207,
      "umbers": 3208,
      "Ġsolve": 3209,
      "Ġcamera": 3210,
      "Ġpige": 3211,
      "ray": 3212,
      "cod": 3213,
      "Ġoriginal": 3214,
      "Ġserious": 3215,
      "Ġstamp": 3216,
      "Ġthirsty": 3217,
      "Ġsuit": 3218,
      "Ġunknown": 3219,
      "Ġtomato": 3220,
      "Ġstupid": 3221,
      "uring": 3222,
      "Ġpost": 3223,
      "Ġdove": 3224,
      "Ġplayful": 3225,
      "Ġstairs": 3226,
      "Ġraced": 3227,
      "Ġyet": 3228,
      "Ġbeet": 3229,
      "Ġsleeping": 3230,
      "Ġguard": 3231,
      "Ġopens": 3232,
      "Ġwealthy": 3233,
      "ĠU": 3234,
      "Ġclum": 3235,
      "Ġpicking": 3236,
      "Ġsalad": 3237,
      "Ġenc": 3238,
      "inary": 3239,
      "Ġcone": 3240,
      "Ġseeds": 3241,
      "Ġcomput": 3242,
      "Em": 3243,
      "gu": 3244,
      "Ġpebble": 3245,
      "Ġmis": 3246,
      "Ġchose": 3247,
      "Ġson": 3248,
      "Ġcrocod": 3249,
      "eorge": 3250,
      "ilty": 3251,
      "Ġallowed": 3252,
      "Ġpeanut": 3253,
      "Ġmole": 3254,
      "Ġguilty": 3255,
      "Ġstops": 3256,
      "Ġangel": 3257,
      "Ġdolphin": 3258,
      "Ġforth": 3259,
      "Ġflex": 3260,
      "Ġcheap": 3261,
      "Ġnurse": 3262,
      "ĠFred": 3263,
      "dom": 3264,
      "Ġwashed": 3265,
      "Ġdelighted": 3266,
      "Ġnature": 3267,
      "iew": 3268,
      "Ġdoesn": 3269,
      "Ġsearching": 3270,
      "Ġmetal": 3271,
      "Ġcere": 3272,
      "com": 3273,
      "Ġclock": 3274,
      "Ġmoder": 3275,
      "Ġsunf": 3276,
      "Ġcompass": 3277,
      "anger": 3278,
      "Ġjolly": 3279,
      "Ġmarch": 3280,
      "Ġboats": 3281,
      "Ġhammer": 3282,
      "vice": 3283,
      "ines": 3284,
      "Ġthose": 3285,
      "ugged": 3286,
      "Ġview": 3287,
      "Ġnumbers": 3288,
      "Ġleaving": 3289,
      "isk": 3290,
      "Ġtelling": 3291,
      "Ġclumsy": 3292,
      "See": 3293,
      "Ġrushed": 3294,
      "ĠBobo": 3295,
      "ĠAlice": 3296,
      "Ġfresh": 3297,
      "Ġhay": 3298,
      "Ġdull": 3299,
      "ience": 3300,
      "oomy": 3301,
      "Ġpant": 3302,
      "Ġarrow": 3303,
      "Ġprint": 3304,
      "Ġhairy": 3305,
      "ĠTweety": 3306,
      "ĠWhenever": 3307,
      "Ġdust": 3308,
      "Ġmissing": 3309,
      "het": 3310,
      "Ġregular": 3311,
      "gest": 3312,
      "Ġflexible": 3313,
      "Ġacorn": 3314,
      "ĠKim": 3315,
      "Ġshel": 3316,
      "Ġterrible": 3317,
      "Ġfriendship": 3318,
      "Ġprize": 3319,
      "Ġmodern": 3320,
      "!\".": 3321,
      "Ġspilled": 3322,
      "Ġengine": 3323,
      "Ġtem": 3324,
      "Ġtor": 3325,
      "Ġjug": 3326,
      "ations": 3327,
      "Ġtooth": 3328,
      "Ġsauce": 3329,
      "Ġending": 3330,
      "Ġbiggest": 3331,
      "Ġload": 3332,
      "Ġdriving": 3333,
      "Ġavo": 3334,
      "Ġaunt": 3335,
      "aghet": 3336,
      "Ġpotato": 3337,
      "aghetti": 3338,
      "Ġbarber": 3339,
      "Ġenvelope": 3340,
      "Ġsink": 3341,
      "Ġtowers": 3342,
      "Ġumbrella": 3343,
      "Ġsne": 3344,
      "Ġrub": 3345,
      "Ġpirate": 3346,
      "Ġdestro": 3347,
      "ict": 3348,
      "Ġhanded": 3349,
      "Ġpeeked": 3350,
      "fa": 3351,
      "Ġpopular": 3352,
      "Ġpatter": 3353,
      "Ġhandle": 3354,
      "time": 3355,
      "Ġloll": 3356,
      "Ġcareless": 3357,
      "Ġwire": 3358,
      "ĠSn": 3359,
      "Ġdreaming": 3360,
      "Ġcarrying": 3361,
      "Ġbeetle": 3362,
      "While": 3363,
      "Ġscreen": 3364,
      "ipop": 3365,
      "Ġthunder": 3366,
      "Ġspaghetti": 3367,
      "Ġchar": 3368,
      "Go": 3369,
      "Ġtied": 3370,
      "Ġgraceful": 3371,
      "ĠMar": 3372,
      "Ġing": 3373,
      "Ġwing": 3374,
      "Ġcomb": 3375,
      "Ġprep": 3376,
      "Ġcereal": 3377,
      "Ġstage": 3378,
      "ĠBella": 3379,
      "Ġlollipop": 3380,
      "Ġjacket": 3381,
      "Ġtunnel": 3382,
      "Ġstatue": 3383,
      "Ġmush": 3384,
      "Ġrubbed": 3385,
      "Ġcompassion": 3386,
      "Ġgoose": 3387,
      "Ġknock": 3388,
      "Ġpattern": 3389,
      "Ġdesk": 3390,
      "Ġreward": 3391,
      "Ġscatter": 3392,
      "Ġslides": 3393,
      "redient": 3394,
      "Ġingredient": 3395,
      "Ġshocked": 3396,
      "Ġer": 3397,
      "Ġcomputer": 3398,
      "Ġcur": 3399,
      "ision": 3400,
      "Ġnote": 3401,
      "Ġdeliver": 3402,
      "Ġscale": 3403,
      "Ġstack": 3404,
      "Ġmel": 3405,
      "robe": 3406,
      "Ġsquare": 3407,
      "Ġgrand": 3408,
      "Ġmeal": 3409,
      "arsh": 3410,
      "Ġbull": 3411,
      "Ġtrap": 3412,
      "Ġliz": 3413,
      "Ġtruth": 3414,
      "Ġcrazy": 3415,
      "Ġbracelet": 3416,
      "Ġcrocodile": 3417,
      "eezed": 3418,
      "ĠMike": 3419,
      "Ġpengu": 3420,
      "âĢ": 3421,
      "Ġpow": 3422,
      "Ġtravel": 3423,
      "Ġwitch": 3424,
      "Ġshiver": 3425,
      "Ġgasped": 3426,
      "Ġmask": 3427,
      "Ġimagined": 3428,
      "Ġimpressive": 3429,
      "Ġrug": 3430,
      "Ġtrash": 3431,
      "Ġperform": 3432,
      "Ġpersist": 3433,
      "âĤ¬âĢ": 3434,
      "ellig": 3435,
      "Ġcollar": 3436,
      "Ġearth": 3437,
      "Ġintellig": 3438,
      "ĠPe": 3439,
      "Ġearly": 3440,
      "ĠWhile": 3441,
      "Ġpup": 3442,
      "Ġjumps": 3443,
      "Ow": 3444,
      "Ġthinking": 3445,
      "Ġadvice": 3446,
      "host": 3447,
      "io": 3448,
      "uddy": 3449,
      "ement": 3450,
      "iches": 3451,
      "Ġwheels": 3452,
      "Ġstranger": 3453,
      "Ġcrane": 3454,
      "Ġspring": 3455,
      "uper": 3456,
      "Ġnames": 3457,
      "Ġenv": 3458,
      "Ġperm": 3459,
      "Ġwindows": 3460,
      "Ġenth": 3461,
      "comfort": 3462,
      "Ġfork": 3463,
      "ÅĵWhat": 3464,
      "Ġspoke": 3465,
      "ibb": 3466,
      "Ġghost": 3467,
      "illie": 3468,
      "ĠDave": 3469,
      "Ġbent": 3470,
      "ikes": 3471,
      "ĠLook": 3472,
      "Ġbeauty": 3473,
      "ophie": 3474,
      "Ġstickers": 3475,
      "Ġcreate": 3476,
      "Ġobject": 3477,
      "Ġlibrary": 3478,
      "Ġenthus": 3479,
      "Ġcelebrate": 3480,
      "Ġmushroom": 3481,
      "Ġingredients": 3482,
      "aches": 3483,
      "comfortable": 3484,
      "Ġwaff": 3485,
      "Ġmill": 3486,
      "Ġgrowing": 3487,
      "Ġorder": 3488,
      "Ġwarned": 3489,
      "Ġphot": 3490,
      "Ġmailbox": 3491,
      "Ġuncomfortable": 3492,
      "Ġdiscover": 3493,
      "Ġbutterflies": 3494,
      "Ġreading": 3495,
      "Ġpale": 3496,
      "Ġhipp": 3497,
      "Ġtorn": 3498,
      "awn": 3499,
      "Ġcamp": 3500,
      "Ġsorts": 3501,
      "Ġsparkled": 3502,
      "ĠHere": 3503,
      "ÅĵLetÃ¢": 3504,
      "Ġpigeon": 3505,
      "Ġquestion": 3506,
      "Ġsofa": 3507,
      "ebra": 3508,
      "Ġharmless": 3509,
      "Ġcomplet": 3510,
      "Ġletters": 3511,
      "Ġparade": 3512,
      "coa": 3513,
      "Ġcompetitive": 3514,
      "Ġflour": 3515,
      "ÅĵYes": 3516,
      "Ġanx": 3517,
      "tter": 3518,
      "Ġsudden": 3519,
      "ÅĵIt": 3520,
      "Ġuncle": 3521,
      "Ġpretending": 3522,
      "Ġpenny": 3523,
      "Ġgor": 3524,
      "Ġdestroy": 3525,
      "Ġsandwiches": 3526,
      "Ġnuts": 3527,
      "Ġahead": 3528,
      "Ġrece": 3529,
      "Ġblueber": 3530,
      "orant": 3531,
      "Ġcounting": 3532,
      "Ġpatch": 3533,
      "loo": 3534,
      "Ġbadly": 3535,
      "ips": 3536,
      "ince": 3537,
      "Ġpony": 3538,
      "Ġshut": 3539,
      "Ġlizard": 3540,
      "Ġanxious": 3541,
      "Ġzebra": 3542,
      "Ġbeep": 3543,
      "Ġplaced": 3544,
      "Ġsurf": 3545,
      "Ġcooking": 3546,
      "Ġpiano": 3547,
      "Ġneat": 3548,
      "Ġhumble": 3549,
      "Ġhook": 3550,
      "ices": 3551,
      "Ġencou": 3552,
      "Ġsadly": 3553,
      "Ġsnuggled": 3554,
      "Ġcocoa": 3555,
      "Ġuniver": 3556,
      "Ġhung": 3557,
      "Ġmay": 3558,
      "Ġignorant": 3559,
      "ric": 3560,
      "ĠGrandpa": 3561,
      "Ġtwirled": 3562,
      "Ġintelligent": 3563,
      "Ġstation": 3564,
      "Ġsunflower": 3565,
      "Ġbase": 3566,
      "Ġotter": 3567,
      "stri": 3568,
      "ses": 3569,
      "ĠcouldnÃ¢": 3570,
      "ĠMummy": 3571,
      "aid": 3572,
      "oe": 3573,
      "Ġpersistent": 3574,
      "Ġdug": 3575,
      "Ġpepper": 3576,
      "Ġtriang": 3577,
      "Ġnail": 3578,
      "Ġcards": 3579,
      "Ġrefused": 3580,
      "Yay": 3581,
      "Ġtask": 3582,
      "Ġspeed": 3583,
      "Ġgum": 3584,
      "ief": 3585,
      "Ġrules": 3586,
      "cream": 3587,
      "Ġgloomy": 3588,
      "Ġcupboard": 3589,
      "Ġpants": 3590,
      "gust": 3591,
      "arian": 3592,
      "Ġchance": 3593,
      "Ġfearful": 3594,
      "Ġtur": 3595,
      "Ġchasing": 3596,
      "ud": 3597,
      "Ġcharming": 3598,
      "Ġleash": 3599,
      "Ġstarts": 3600,
      "Ġshaking": 3601,
      "Ġdisgust": 3602,
      "Ġsett": 3603,
      "Ġcreatures": 3604,
      "Ġdeaf": 3605,
      "Ġattract": 3606,
      "ĠGive": 3607,
      "ĠBear": 3608,
      "used": 3609,
      "Ġtrick": 3610,
      "Mary": 3611,
      "Ġcarp": 3612,
      "Ġordinary": 3613,
      "Ġtrack": 3614,
      "ĠFr": 3615,
      "Ġpasta": 3616,
      "cu": 3617,
      "Ġresist": 3618,
      "erable": 3619,
      "ĠWh": 3620,
      "Ġanywhere": 3621,
      "Ġtrump": 3622,
      "Ġolder": 3623,
      "Ġcartoon": 3624,
      "Ġsuper": 3625,
      "lcano": 3626,
      "Ġcurt": 3627,
      "Ġgifted": 3628,
      "cut": 3629,
      "Ġhippo": 3630,
      "Ġcurtain": 3631,
      "Ġled": 3632,
      "Ġyawn": 3633,
      "Ġmiserable": 3634,
      "ceed": 3635,
      "Ġsquash": 3636,
      "Ġcourage": 3637,
      "Ġcricket": 3638,
      "ĠSm": 3639,
      "Ġbrighter": 3640,
      "Ġgorilla": 3641,
      "Give": 3642,
      "Ġimpat": 3643,
      "Re": 3644,
      "bled": 3645,
      "Ġsend": 3646,
      "Ġpurse": 3647,
      "Ġgir": 3648,
      "Ġalert": 3649,
      "Ġjet": 3650,
      "Ġpracticed": 3651,
      "Ġturkey": 3652,
      "Ġclub": 3653,
      "Ġhurry": 3654,
      "Ġhelmet": 3655,
      "Ġshouts": 3656,
      "Ġvalue": 3657,
      "Ġdecorate": 3658,
      "ĠPat": 3659,
      "Ġbandage": 3660,
      "ĠSh": 3661,
      "opus": 3662,
      "ctopus": 3663,
      "Ġsoldier": 3664,
      "Ġfu": 3665,
      "urb": 3666,
      "Ġcompl": 3667,
      "Ġostri": 3668,
      "Ġscoot": 3669,
      "ĠJoey": 3670,
      "Ġimpatient": 3671,
      "Ġtire": 3672,
      "Ġcase": 3673,
      "Ġdisturb": 3674,
      "iest": 3675,
      "htub": 3676,
      "Ġallig": 3677,
      "Ġvolcano": 3678,
      "Ġcompassionate": 3679,
      "Ġtrumpet": 3680,
      "Ġbathtub": 3681,
      "Ġshine": 3682,
      "Ġoctopus": 3683,
      "Ġbounced": 3684,
      "Ġsupport": 3685,
      "Ġitself": 3686,
      "aked": 3687,
      "ĠToby": 3688,
      "Ġspell": 3689,
      "Ġdrawer": 3690,
      "Ġcarpet": 3691,
      "Ġdisgusting": 3692,
      "Ġjeep": 3693,
      "ĠEventually": 3694,
      "Ġpressed": 3695,
      "ĠAre": 3696,
      "Ġsalt": 3697,
      "Ġbicy": 3698,
      "Ġmeas": 3699,
      "Ġgrabs": 3700,
      "Ġfilthy": 3701,
      "Ġmelon": 3702,
      "ĠLola": 3703,
      "noon": 3704,
      "Ġcomet": 3705,
      "Ġafternoon": 3706,
      "Ġbarking": 3707,
      "Ġmug": 3708,
      "Ġrestless": 3709,
      "aff": 3710,
      "Ġshoe": 3711,
      "Ġhunter": 3712,
      "Bye": 3713,
      "Ġenvious": 3714,
      "Ġbri": 3715,
      "Ġhelpless": 3716,
      "Ġtray": 3717,
      "Ġfirework": 3718,
      "Ġsucceed": 3719,
      "Ġpulls": 3720,
      "icop": 3721,
      "ĠWhere": 3722,
      "icopter": 3723,
      "Ġstretched": 3724,
      "Ġtemp": 3725,
      "Ġten": 3726,
      "ubby": 3727,
      "Ġnowhere": 3728,
      "Ġskip": 3729,
      "Ġadmire": 3730,
      "Ġattractive": 3731,
      "ĠAlex": 3732,
      "Ġcryst": 3733,
      "Ġlively": 3734,
      "Ġnobody": 3735,
      "Ġmagnet": 3736,
      "Ġhelicopter": 3737,
      "aroo": 3738,
      "Ġshield": 3739,
      "Ġexplain": 3740,
      "angaroo": 3741,
      "gging": 3742,
      "Ġhuman": 3743,
      "Ġrepe": 3744,
      "aurant": 3745,
      "Ġneedle": 3746,
      "Ġorganize": 3747,
      "gn": 3748,
      "Ġsomewhere": 3749,
      "If": 3750,
      "Ġfive": 3751,
      "Ġrestaurant": 3752,
      "Ġgiggle": 3753,
      "Ġcush": 3754,
      "aby": 3755,
      "Ġcats": 3756,
      "Ġcows": 3757,
      "Ġleop": 3758,
      "Ġvine": 3759,
      "Ġanyway": 3760,
      "Ġbarrel": 3761,
      "ser": 3762,
      "Ġkangaroo": 3763,
      "Ġbet": 3764,
      "Ġvide": 3765,
      "Ġmonkeys": 3766,
      "Ġattic": 3767,
      "Ġsplit": 3768,
      "Benny": 3769,
      "Ġsticker": 3770,
      "Ġcooked": 3771,
      "Ġlions": 3772,
      "ĠTweetie": 3773,
      "Ġreco": 3774,
      "Ġwishes": 3775,
      "Ġostrich": 3776,
      "ĠPolly": 3777,
      "ophone": 3778,
      "Ġdess": 3779,
      "enry": 3780,
      "Ġthief": 3781,
      "ÅĵThat": 3782,
      "Ġthread": 3783,
      "Ġchubby": 3784,
      "Ġpoem": 3785,
      "Ġants": 3786,
      "Ġsandbox": 3787,
      "Ġfurther": 3788,
      "Ġbackpack": 3789,
      "Ġseal": 3790,
      "Ġpun": 3791,
      "Ġgoal": 3792,
      "Ġdistant": 3793,
      "Ġrespectful": 3794,
      "ĠMandy": 3795,
      "ebook": 3796,
      "Ġtap": 3797,
      "inking": 3798,
      "Ġscrew": 3799,
      "ĠCl": 3800,
      "Ġradio": 3801,
      "Ġnotebook": 3802,
      "Ġvi": 3803,
      "Ġpaws": 3804,
      "ummer": 3805,
      "astic": 3806,
      "Ġribb": 3807,
      "stairs": 3808,
      "Ġholes": 3809,
      "Ġharsh": 3810,
      "Ġunpack": 3811,
      "Ġfinds": 3812,
      "Ġraven": 3813,
      "par": 3814,
      "Ġmuff": 3815,
      "Everyone": 3816,
      "Ġsent": 3817,
      "Ġsepar": 3818,
      "Ġpushes": 3819,
      "iskers": 3820,
      "Ġmath": 3821,
      "Ġfireman": 3822,
      "Ġmodest": 3823,
      "Ġstirred": 3824,
      "Ġswitch": 3825,
      "arlie": 3826,
      "Alice": 3827,
      "Ġalligator": 3828,
      "Ġsteps": 3829,
      "shed": 3830,
      "Ġstared": 3831,
      "Ġelev": 3832,
      "orable": 3833,
      "Ġfrowned": 3834,
      "ĠEverything": 3835,
      "Ġpackage": 3836,
      "night": 3837,
      "Ġsweater": 3838,
      "Ġleopard": 3839,
      "Ġhedge": 3840,
      "Ġavoc": 3841,
      "Ġpand": 3842,
      "Ġcardboard": 3843,
      "Ġbicycle": 3844,
      "hood": 3845,
      "stic": 3846,
      "Ġwheat": 3847,
      "Ġmicr": 3848,
      "ipping": 3849,
      "Ġlid": 3850,
      "Ġrice": 3851,
      "Ġcube": 3852,
      "Ġsize": 3853,
      "Ġsheet": 3854,
      "Ġelevator": 3855,
      "Ġsoar": 3856,
      "Ġfort": 3857,
      "Ġdrawings": 3858,
      "cycle": 3859,
      "Ġbikes": 3860,
      "Ġbehave": 3861,
      "Ġjokes": 3862,
      "Ġlightning": 3863,
      "Ġcandle": 3864,
      "ĠSmith": 3865,
      "Ġur": 3866,
      "Ġadorable": 3867,
      "Ġimpro": 3868,
      "iastic": 3869,
      "Ġsilver": 3870,
      "Ġenthusiastic": 3871,
      "Ġmeat": 3872,
      "Ġbreat": 3873,
      "ci": 3874,
      "Ġhive": 3875,
      "iron": 3876,
      "Ġbears": 3877,
      "ĠBrownie": 3878,
      "Ġsort": 3879,
      "Ġhaircut": 3880,
      "elery": 3881,
      "Ġexper": 3882,
      "Ġspeak": 3883,
      "gie": 3884,
      "Ġhappier": 3885,
      "heart": 3886,
      "Ġdessert": 3887,
      "Ġmicrophone": 3888,
      "ĠBuddy": 3889,
      "come": 3890,
      "Ġsle": 3891,
      "Ġloop": 3892,
      "Ġchain": 3893,
      "irit": 3894,
      "Ġquite": 3895,
      "Ġrepair": 3896,
      "Ġhall": 3897,
      "Ġeither": 3898,
      "aila": 3899,
      "ccol": 3900,
      "Ġpal": 3901,
      "ĠBill": 3902,
      "uct": 3903,
      "Daisy": 3904,
      "ĠGeorge": 3905,
      "ccoli": 3906,
      "Ġenerg": 3907,
      "Ġstretch": 3908,
      "Ġrecogn": 3909,
      "Ġtroubled": 3910,
      "Ġquar": 3911,
      "reci": 3912,
      "Ġmarry": 3913,
      "Ġoy": 3914,
      "ĠLee": 3915,
      "Ġchalk": 3916,
      "ĠRed": 3917,
      "Ġprov": 3918,
      "aulif": 3919,
      "Ġtripped": 3920,
      "Ġswinging": 3921,
      "cast": 3922,
      "Ġfle": 3923,
      "Ġboots": 3924,
      "Ġpole": 3925,
      "Ġappreci": 3926,
      "Ġroared": 3927,
      "Ġlistening": 3928,
      "Ġriding": 3929,
      "Ġpaid": 3930,
      "Ġjellyfish": 3931,
      "Ġgro": 3932,
      "Ġstom": 3933,
      "Ġdishes": 3934,
      "ailable": 3935,
      "Ġgolf": 3936,
      "Ġpapers": 3937,
      "Ġpor": 3938,
      "Ġforgave": 3939,
      "Ġshovel": 3940,
      "Ġcact": 3941,
      "Ġoat": 3942,
      "year": 3943,
      "Ġlip": 3944,
      "Ġchecked": 3945,
      "Ġsandcast": 3946,
      "apa": 3947,
      "Ġrescue": 3948,
      "Ġclapping": 3949,
      "Ġscold": 3950,
      "Ġrod": 3951,
      "Ġshelter": 3952,
      "eer": 3953,
      "ĠdidnÃ¢": 3954,
      "Ġmama": 3955,
      "Ġinse": 3956,
      "Ġwallet": 3957,
      "Ġbin": 3958,
      "cond": 3959,
      "Ġsecond": 3960,
      "Ġbuzz": 3961,
      "Ġavailable": 3962,
      "Ġcelery": 3963,
      "Ġsock": 3964,
      "Ġobser": 3965,
      "fee": 3966,
      "Ġink": 3967,
      "Ġshakes": 3968,
      "Ġpushing": 3969,
      "happy": 3970,
      "Ġtriangle": 3971,
      "Ha": 3972,
      "Ġeraser": 3973,
      "ffee": 3974,
      "Ġmessage": 3975,
      "Ġcaulif": 3976,
      "Ġpeek": 3977,
      "Ġgrapes": 3978,
      "Ġpalace": 3979,
      "Ġalive": 3980,
      "Ġtrains": 3981,
      "Ġshopkeeper": 3982,
      "Little": 3983,
      "Ġtrop": 3984,
      "Ġcolours": 3985,
      "Ġfalling": 3986,
      "Ġknot": 3987,
      "Ġfeelings": 3988,
      "Ġbroccoli": 3989,
      "Ġsailor": 3990,
      "Ġpoint": 3991,
      "Daddy": 3992,
      "ĠWhiskers": 3993,
      "ube": 3994,
      "Ġrag": 3995,
      "Ġcountry": 3996,
      "Ġbreaks": 3997,
      "Ġcostume": 3998,
      "Ġcactus": 3999,
      "Ġspirit": 4000,
      "Ġlear": 4001,
      "Ġraft": 4002,
      "Ġsmells": 4003,
      "Ġjudge": 4004,
      "Ġyach": 4005,
      "olin": 4006,
      "Ġlearnt": 4007,
      "Ġsummer": 4008,
      "Ġlaser": 4009,
      "Ġonion": 4010,
      "Ġsoftly": 4011,
      "Ġtuna": 4012,
      "ron": 4013,
      "render": 4014,
      "Ġshrimp": 4015,
      "Ġscooter": 4016,
      "Ġtrophy": 4017,
      "Ġluck": 4018,
      "Ġputting": 4019,
      "Ġclimbing": 4020,
      "Ġended": 4021,
      "Ġpolish": 4022,
      "Ġraining": 4023,
      "ĠSnow": 4024,
      "Ġcrystal": 4025,
      "Ġmen": 4026,
      "Ġmild": 4027,
      "Ġreind": 4028,
      "Ġart": 4029,
      "azz": 4030,
      "play": 4031,
      "bul": 4032,
      "Ġstarting": 4033,
      "reeze": 4034,
      "ucked": 4035,
      "Ġvisited": 4036,
      "ĠGrace": 4037,
      "Ġzoomed": 4038,
      "Ġrubber": 4039,
      "edy": 4040,
      "Ġtreasures": 4041,
      "Ġbasketball": 4042,
      "ooped": 4043,
      "Ġunhappy": 4044,
      "ĠOr": 4045,
      "Ġhoping": 4046,
      "Ġrolling": 4047,
      "Ġsprink": 4048,
      "ef": 4049,
      "Ġstrugg": 4050,
      "Ġappl": 4051,
      "Ġenergy": 4052,
      "ĠWould": 4053,
      "Ġgiven": 4054,
      "Ġcauliflower": 4055,
      "Jenny": 4056,
      "Ġtube": 4057,
      "Ġol": 4058,
      "Ġyacht": 4059,
      "sist": 4060,
      "Ġlaund": 4061,
      "Ġpilot": 4062,
      "Ġpipe": 4063,
      "aled": 4064,
      "Ġped": 4065,
      "Ġlaundry": 4066,
      "Grandma": 4067,
      "Ġunlock": 4068,
      "Ġpenguin": 4069,
      "Ġsaus": 4070,
      "icer": 4071,
      "Ġneighbour": 4072,
      "Ġcooler": 4073,
      "ĠBunny": 4074,
      "Ġhotel": 4075,
      "ĠJerry": 4076,
      "Ġframe": 4077,
      "Ġhadn": 4078,
      "Ġreindeer": 4079,
      "Ġflies": 4080,
      "Ġdive": 4081,
      "ĠPaul": 4082,
      "Ġdisplay": 4083,
      "Ġtricks": 4084,
      "Ġcups": 4085,
      "Ġbarks": 4086,
      "Ġkay": 4087,
      "Ġquit": 4088,
      "Ġbelt": 4089,
      "Ġshort": 4090,
      "aggie": 4091,
      "Ġthanks": 4092,
      "Ġbul": 4093,
      "Ġsweetheart": 4094,
      "Ġbur": 4095,
      "Ġcoffee": 4096,
      "ait": 4097,
      "ĠSandy": 4098,
      "ecause": 4099,
      "Ġpeach": 4100,
      "Ġdisag": 4101,
      "Ġairport": 4102,
      "Ġincl": 4103,
      "pe": 4104,
      "kelet": 4105,
      "ĠBet": 4106,
      "sely": 4107,
      "ĠSophie": 4108,
      "ĠAndy": 4109,
      "Ġoil": 4110,
      "Ġevening": 4111,
      "Ġdrops": 4112,
      "Ġjournal": 4113,
      "Ġfilm": 4114,
      "Ġsym": 4115,
      "Ġshade": 4116,
      "Ġthrows": 4117,
      "Ġlawy": 4118,
      "Ġtax": 4119,
      "Ġcord": 4120,
      "ides": 4121,
      "Ġstuffed": 4122,
      "Ġcushion": 4123,
      "ney": 4124,
      "Ġfolder": 4125,
      "Ġbulb": 4126,
      "Ġlives": 4127,
      "Ġpad": 4128,
      "ĠTr": 4129,
      "Ġskill": 4130,
      "Ġiron": 4131,
      "seum": 4132,
      "Ġmarched": 4133,
      "hino": 4134,
      "Ġclosely": 4135,
      "Ġbananas": 4136,
      "Ġphoto": 4137,
      "zzy": 4138,
      "Ġambul": 4139,
      "Ġvend": 4140,
      "Ġleaned": 4141,
      "nger": 4142,
      "Ġtub": 4143,
      "Ġpanda": 4144,
      "Ġsurrender": 4145,
      "Ġfootball": 4146,
      "Ġfisher": 4147,
      "Ġstrawberry": 4148,
      "ense": 4149,
      "Ġinsist": 4150,
      "Ġmuseum": 4151,
      "Ġplanet": 4152,
      "Ġwool": 4153,
      "Ġpair": 4154,
      "Ġfauc": 4155,
      "Ġcounter": 4156,
      "Ġporch": 4157,
      "ges": 4158,
      "keleton": 4159,
      "Ġlend": 4160,
      "bol": 4161,
      "ito": 4162,
      "Ġdiary": 4163,
      "Ġpainter": 4164,
      "affe": 4165,
      "Ġsymbol": 4166,
      "Ġtheater": 4167,
      "Ġcherries": 4168,
      "Ġambulance": 4169,
      "Ġtaxi": 4170,
      "Ġax": 4171,
      "Ġrhino": 4172,
      "Ġswung": 4173,
      "Ġcomplete": 4174,
      "Ġwaving": 4175,
      "ites": 4176,
      "Ġfrogs": 4177,
      "eath": 4178,
      "Ġheads": 4179,
      "Ġsteak": 4180,
      "Ġfields": 4181,
      "Ġapologized": 4182,
      "Ġfaucet": 4183,
      "izes": 4184,
      "Ġviolin": 4185,
      "..": 4186,
      "Ġlie": 4187,
      "ccer": 4188,
      "quito": 4189,
      "mand": 4190,
      "ĠRo": 4191,
      "Ġforgotten": 4192,
      "Ġinsect": 4193,
      "Ġplastic": 4194,
      "Ġreef": 4195,
      "nam": 4196,
      "Ġhut": 4197,
      "Ġmule": 4198,
      "Ġcheek": 4199,
      "TMm": 4200,
      "Ġpage": 4201,
      "ckey": 4202,
      "Ġhockey": 4203,
      "Ġpowder": 4204,
      "âĤ¬âĢľ": 4205,
      "Ġsoccer": 4206,
      "ÅĵYou": 4207,
      "Ġmagaz": 4208,
      "Ġimagine": 4209,
      "Ġlime": 4210,
      "Ġcable": 4211,
      "Ġimagination": 4212,
      "erop": 4213,
      "Ġshouldn": 4214,
      "eropl": 4215,
      "Ġaeropl": 4216,
      "Ġvet": 4217,
      "Ġmos": 4218,
      "Ġbaking": 4219,
      "ween": 4220,
      "Ġtrail": 4221,
      "Ġwinter": 4222,
      "Ġsunset": 4223,
      "Ġskeleton": 4224,
      "ĠPapa": 4225,
      "Ġwife": 4226,
      "Ġcreated": 4227,
      "Ġbetween": 4228,
      "angu": 4229,
      "Ġbelongs": 4230,
      "Ġgiraffe": 4231,
      "Ġquarrel": 4232,
      "Ġvendor": 4233,
      "Ġlangu": 4234,
      "Ġpirates": 4235,
      "Ġmosquito": 4236,
      "any": 4237,
      "Ġsoil": 4238,
      "Ġplayer": 4239,
      "Ġsir": 4240,
      "Ġchirp": 4241,
      "ected": 4242,
      "Ġgrocer": 4243,
      "stead": 4244,
      "Ġkitty": 4245,
      "Ġaxe": 4246,
      "Ġrever": 4247,
      "ĠRos": 4248,
      "iling": 4249,
      "ctory": 4250,
      "ues": 4251,
      "ories": 4252,
      "aces": 4253,
      "Ġpoints": 4254,
      "urch": 4255,
      "Ġbreeze": 4256,
      "Ġwipe": 4257,
      "Ġmotorcycle": 4258,
      "Ġtemple": 4259,
      "Ġherb": 4260,
      "Ġeagerly": 4261,
      "Ġyogurt": 4262,
      "Ġsneak": 4263,
      "Ġslept": 4264,
      "anic": 4265,
      "Ġfactory": 4266,
      "Ġminute": 4267,
      "ippery": 4268,
      "Ġshouting": 4269,
      "nament": 4270,
      "ĠMillie": 4271,
      "Ġslippery": 4272,
      "Ġattention": 4273,
      "Ġstud": 4274,
      "Ġmeeting": 4275,
      "Ġkayak": 4276,
      "Ġlawyer": 4277,
      "chair": 4278,
      "Ġblowing": 4279,
      "Ġfisherman": 4280,
      "chanic": 4281,
      "Ġperfectly": 4282,
      "Ġmixer": 4283,
      "Ġcane": 4284,
      "Ġnovel": 4285,
      "Ġornament": 4286,
      "Ġseeing": 4287,
      "Ġpoke": 4288,
      "Ġargue": 4289,
      "Ġglowing": 4290,
      "imi": 4291,
      "Ġmechanic": 4292,
      "Ġpit": 4293,
      "Ġfishing": 4294,
      "Ġsprayed": 4295,
      "Ġchickens": 4296,
      "Ġseas": 4297,
      "Ġoffer": 4298,
      "spap": 4299,
      "imney": 4300,
      "Ġvest": 4301,
      "Ġmaze": 4302,
      "Ġheaded": 4303,
      "Ġnewspap": 4304,
      "Ch": 4305,
      "men": 4306,
      "Ġweather": 4307,
      "Ġtwink": 4308,
      "Ġarmchair": 4309,
      "Ġavocado": 4310,
      "Ġnapkin": 4311,
      "Ġskull": 4312,
      "ĠdonÃ¢": 4313,
      "Ġblankets": 4314,
      "Ġcelebrated": 4315,
      "Ġrot": 4316,
      "Ġsung": 4317,
      "Ġchimney": 4318,
      "ĠMaria": 4319,
      "ison": 4320,
      "place": 4321,
      "Ġglove": 4322,
      "Ġhopes": 4323,
      "Ġitch": 4324,
      "Ġzipper": 4325,
      "lass": 4326,
      "Ġgreedy": 4327,
      "iture": 4328,
      "Ġflame": 4329,
      "urniture": 4330,
      "Ġbaseball": 4331,
      "Ġsquirrels": 4332,
      "Your": 4333,
      "inarian": 4334,
      "eterinarian": 4335,
      "Ġfurniture": 4336,
      "ĠWill": 4337,
      "aud": 4338,
      "Inside": 4339,
      "Ġgolden": 4340,
      "ĠBun": 4341,
      "Ġmystery": 4342,
      "Ġvideo": 4343,
      "Ġflea": 4344,
      "Ġtoil": 4345,
      "Ġshower": 4346,
      "Ġmoves": 4347,
      "Ġveterinarian": 4348,
      "Ġknob": 4349,
      "ceros": 4350,
      "Ġwelcomed": 4351,
      "Ġdoors": 4352,
      "Ġoyster": 4353,
      "Eventually": 4354,
      "Ġsniffed": 4355,
      "Ġpetals": 4356,
      "Ġwags": 4357,
      "Ġparent": 4358,
      "Ġkingdom": 4359,
      "Ġfollows": 4360,
      "Ġtoilet": 4361,
      "Ġhar": 4362,
      "erc": 4363,
      "Ġble": 4364,
      "Ġhappens": 4365,
      "Ġcalls": 4366,
      "Ġmemories": 4367,
      "Ġbury": 4368,
      "Ġdiscu": 4369,
      "Ġfreez": 4370,
      "Ġmop": 4371,
      "Ġjunk": 4372,
      "Ġtear": 4373,
      "reek": 4374,
      "Ġhanging": 4375,
      "was": 4376,
      "Ġlawn": 4377,
      "Ġwriting": 4378,
      "Ġrhinoceros": 4379,
      "Ġcreek": 4380,
      "Ġlotion": 4381,
      "Ġapplaud": 4382,
      "mm": 4383,
      "ĠGod": 4384,
      "Ġvroom": 4385,
      "Ġsticky": 4386,
      "unately": 4387,
      "Together": 4388,
      "Ġsurround": 4389,
      "washer": 4390,
      "elcome": 4391,
      "Ġreve": 4392,
      "Ġsque": 4393,
      "Ġfireplace": 4394,
      "Ġquack": 4395,
      "Ġthrowing": 4396,
      "ler": 4397,
      "Ġminer": 4398,
      "Ġdishwasher": 4399,
      "hero": 4400,
      "Ġexerc": 4401,
      "Ġcoal": 4402,
      "Ġtrave": 4403,
      "Ġsuperhero": 4404,
      "Ġaeroplane": 4405,
      "lasses": 4406,
      "Ġweigh": 4407,
      "Ġprun": 4408,
      "Ġpopped": 4409,
      "Ġmedal": 4410,
      "Ġpassport": 4411,
      "Ġpine": 4412,
      "Ġshoulder": 4413,
      "Ġburned": 4414,
      "Ġsunglasses": 4415,
      "tain": 4416,
      "Ġstaff": 4417,
      "Ġchurch": 4418,
      "Ġignored": 4419,
      "Next": 4420,
      "tress": 4421,
      "ĠLilly": 4422,
      "Ġshrugged": 4423,
      "Emma": 4424,
      "low": 4425,
      "Ġdear": 4426,
      "Ġveil": 4427,
      "Ġmattress": 4428,
      "Ġclassroom": 4429,
      "Ġbother": 4430,
      "aws": 4431,
      "Ġig": 4432,
      "ĠUn": 4433,
      "Ġigloo": 4434,
      "rosc": 4435,
      "Ġgrin": 4436,
      "orses": 4437,
      "Ġregret": 4438,
      "iday": 4439,
      "Ġcob": 4440,
      "Ġflapped": 4441,
      "Ġcollected": 4442,
      "ĠHarry": 4443,
      "Ġagre": 4444,
      "Ġworth": 4445,
      "Ġdancer": 4446,
      "ĠRu": 4447,
      "Ġsailing": 4448,
      "Ġcrib": 4449,
      "roscope": 4450,
      "right": 4451,
      "Ġtug": 4452,
      "Ġsince": 4453,
      "Ġhorses": 4454,
      "Ġinvest": 4455,
      "Ġbattery": 4456,
      "ring": 4457,
      "asis": 4458,
      "ĠInstead": 4459,
      "ores": 4460,
      "Ġcrow": 4461,
      "Today": 4462,
      "una": 4463,
      "ssible": 4464,
      "Ġmistakes": 4465,
      "Ġmicroscope": 4466,
      "Because": 4467,
      "Ġswamp": 4468,
      "Ġlanguage": 4469,
      "Ġfought": 4470,
      "Ġbouncing": 4471,
      "Ġpresents": 4472,
      "Ġseparate": 4473,
      "Ġoak": 4474,
      "Ġfloat": 4475,
      "Ġskirt": 4476,
      "Ġagree": 4477,
      "Ġinvestig": 4478,
      "ety": 4479,
      "Ġquietly": 4480,
      "Ġstreng": 4481,
      "Ġpastry": 4482,
      "rod": 4483,
      "web": 4484,
      "inked": 4485,
      "Ġoasis": 4486,
      "ĠIÃ¢": 4487,
      "case": 4488,
      "Ġinf": 4489,
      "ĠCharlie": 4490,
      "Ġdressed": 4491,
      "Ġeaten": 4492,
      "Wait": 4493,
      "Ġcared": 4494,
      "Ġintrod": 4495,
      "Ġstable": 4496,
      "Ġmakeup": 4497,
      "Ġbeef": 4498,
      "Ġcandles": 4499,
      "Ġstrength": 4500,
      "vision": 4501,
      "ĠBaby": 4502,
      "Ġhol": 4503,
      "Ġblackboard": 4504,
      "Ġalarm": 4505,
      "Ġcaring": 4506,
      "Ġprevent": 4507,
      "Ġmagazine": 4508,
      "Ġnewspaper": 4509,
      "Ġholiday": 4510,
      "rs": 4511,
      "Ġapart": 4512,
      "Ġcrawling": 4513,
      "Ġsizes": 4514,
      "ĠNext": 4515,
      "Ġcobweb": 4516,
      "ĠAnnie": 4517,
      "te": 4518,
      "medi": 4519,
      "Thanks": 4520,
      "ĠRosie": 4521,
      "Ġcell": 4522,
      "Ġstraight": 4523,
      "Ġmarried": 4524,
      "mediately": 4525,
      "ggy": 4526,
      "Ġcomplain": 4527,
      "Ġscolded": 4528,
      "ĠTed": 4529,
      "ĠTony": 4530,
      "Sammy": 4531,
      "Ġchoice": 4532,
      "Ġcoats": 4533,
      "Ġrooms": 4534,
      "Ġsnap": 4535,
      "Ġsqueezed": 4536,
      "Ġtrusted": 4537,
      "ĠSee": 4538,
      "Ġinvestigate": 4539,
      "Ġfog": 4540,
      "anges": 4541,
      "Ġpist": 4542,
      "Ġpur": 4543,
      "Ġaccepted": 4544,
      "omes": 4545,
      "Ġgym": 4546,
      "Ġthumb": 4547,
      "Ġtelevision": 4548,
      "ĠHelp": 4549,
      "Ġweep": 4550,
      "Ġberry": 4551,
      "Ġpistol": 4552,
      "Ġpra": 4553,
      "Ġradish": 4554,
      "chie": 4555,
      "Ġkisses": 4556,
      "Ġsteam": 4557,
      "Qu": 4558,
      "ction": 4559,
      "Ann": 4560,
      "uckily": 4561,
      "Ġsqueeze": 4562,
      "Ġattach": 4563,
      "Ġshrink": 4564,
      "Ġwhisper": 4565,
      "ab": 4566,
      "Ġreaches": 4567,
      "Ġnews": 4568,
      "Ġticket": 4569,
      "ĠitÃ¢": 4570,
      "Ġyield": 4571,
      "Ġpuddles": 4572,
      "Ġsplashing": 4573,
      "Ġappro": 4574,
      "Ġperfu": 4575,
      "Ġceiling": 4576,
      "Ġrelaxed": 4577,
      "Ġmusician": 4578,
      "Ġamazement": 4579,
      "Ġentered": 4580,
      "Did": 4581,
      "Is": 4582,
      "Ġrake": 4583,
      "ĠJess": 4584,
      "Ġsigh": 4585,
      "Ġunif": 4586,
      "Ġjewelry": 4587,
      "Ġblood": 4588,
      "Ġblinked": 4589,
      "Ġletting": 4590,
      "Ġlicks": 4591,
      "Ġwandered": 4592,
      "Ġteleph": 4593,
      "Ġbirdc": 4594,
      "Ġcastles": 4595,
      "Ġwigg": 4596,
      "sters": 4597,
      "Ġperfume": 4598,
      "ives": 4599,
      "Ġdelay": 4600,
      "ups": 4601,
      "Ġchairs": 4602,
      "Ġharb": 4603,
      "Ġuniform": 4604,
      "Ġbirdcage": 4605,
      "mend": 4606,
      "Ġstro": 4607,
      "Ġeasily": 4608,
      "ÅĵItÃ¢": 4609,
      "ising": 4610,
      "Ġyucky": 4611,
      "Ġopera": 4612,
      "Ġdemand": 4613,
      "ĠHenry": 4614,
      "Ġhelper": 4615,
      "Ġsuff": 4616,
      "Ġfiref": 4617,
      "Ġtelephone": 4618,
      "Ġyoga": 4619,
      "house": 4620,
      "Ġhurting": 4621,
      "Ġserve": 4622,
      "ĠWho": 4623,
      "omeday": 4624,
      "ommend": 4625,
      "Ġblueberries": 4626,
      "hic": 4627,
      "Ġrise": 4628,
      "Ġraz": 4629,
      "Ġbookcase": 4630,
      "Ġgrowled": 4631,
      "chor": 4632,
      "Ġrecommend": 4633,
      "Ġpinch": 4634,
      "Ġfreezer": 4635,
      "ĠKate": 4636,
      "Ġrequ": 4637,
      "Ġspear": 4638,
      "Ġclaws": 4639,
      "Ġkeeping": 4640,
      "Ġvehic": 4641,
      "sit": 4642,
      "atie": 4643,
      "ĠMiss": 4644,
      "Ġcliff": 4645,
      "Ġsandcastle": 4646,
      "Ġgrill": 4647,
      "Ġchess": 4648,
      "Ġcrash": 4649,
      "Ġbathe": 4650,
      "achel": 4651,
      "Ġwaffle": 4652,
      "Ġsub": 4653,
      "Ġpuzzles": 4654,
      "Ġmatches": 4655,
      "Ġplates": 4656,
      "Ġdisappear": 4657,
      "cakes": 4658,
      "Ġtucked": 4659,
      "Ġcrossed": 4660,
      "Ġmustache": 4661,
      "Ġtong": 4662,
      "Ġfile": 4663,
      "Ġward": 4664,
      "ĠMimi": 4665,
      "Ġsurprises": 4666,
      "Ġrail": 4667,
      "Ġconf": 4668,
      "Ġhearts": 4669,
      "Ġribbon": 4670,
      "Ġharbor": 4671,
      "ival": 4672,
      "Ġimprove": 4673,
      "Ġdried": 4674,
      "Ġtrade": 4675,
      "Ġplanes": 4676,
      "Ġwardrobe": 4677,
      "Ġsi": 4678,
      "ĠDanny": 4679,
      "ived": 4680,
      "Ġtut": 4681,
      "Ġmint": 4682,
      "Ġwine": 4683,
      "alley": 4684,
      "Ġbelow": 4685,
      "Ġrequest": 4686,
      "Ġcabinet": 4687,
      "ĠSnowy": 4688,
      "Ġbill": 4689,
      "ionary": 4690,
      "Ġanchor": 4691,
      "Ġvac": 4692,
      "Ġsomeday": 4693,
      "raged": 4694,
      "Ġwarmth": 4695,
      "Ġtoes": 4696,
      "Ġcaptain": 4697,
      "ictionary": 4698,
      "Ġrazor": 4699,
      "Ġrefre": 4700,
      "Ġapron": 4701,
      "Mandy": 4702,
      "Ġpoked": 4703,
      "Ġincre": 4704,
      "Ġbleed": 4705,
      "Ġdictionary": 4706,
      "amber": 4707,
      "Ġvalley": 4708,
      "fortunately": 4709,
      "Ġscattered": 4710,
      "lier": 4711,
      "Ġwaste": 4712,
      "anny": 4713,
      "Jen": 4714,
      "Ġpear": 4715,
      "Ġfuel": 4716,
      "Ġboot": 4717,
      "Ġspade": 4718,
      "Ġkneel": 4719,
      "Ġskills": 4720,
      "Ġmass": 4721,
      "ĠSu": 4722,
      "ucture": 4723,
      "Ġsupply": 4724,
      "ĠTrue": 4725,
      "Ġknown": 4726,
      "Ġstructure": 4727,
      "Ġsafety": 4728,
      "ah": 4729,
      "Ġblouse": 4730,
      "eve": 4731,
      "Ġlaught": 4732,
      "Ġdifferen": 4733,
      "Ġspending": 4734,
      "Ġlemonade": 4735,
      "Ġmuffin": 4736,
      "Ġlumber": 4737,
      "Ġspots": 4738,
      "Ġfollowing": 4739,
      "Ġdresses": 4740,
      "Ġexperience": 4741,
      "Ġinstr": 4742,
      "Ġcuddled": 4743,
      "Ġisn": 4744,
      "âĤ¬.": 4745,
      "Ġmoments": 4746,
      "Ġbalan": 4747,
      "Will": 4748,
      "Ġaut": 4749,
      "Ġsaving": 4750,
      "Ġlaughter": 4751,
      "lend": 4752,
      "Ġcub": 4753,
      "ĠAb": 4754,
      "Ġfallen": 4755,
      "'.": 4756,
      "Ġsnapped": 4757,
      "Ġideas": 4758,
      "Ġunderstanding": 4759,
      "Yuck": 4760,
      "Ġmyself": 4761,
      "Ġfastest": 4762,
      "Ġprop": 4763,
      "Ġstrawberries": 4764,
      "Ġairpl": 4765,
      "ampoo": 4766,
      "Ġcalend": 4767,
      "oral": 4768,
      "Ġworms": 4769,
      "Ġtornado": 4770,
      "Ġfest": 4771,
      "Ġraise": 4772,
      "Ġrow": 4773,
      "Ġmissile": 4774,
      "Ġjewels": 4775,
      "Ġcalendar": 4776,
      "Ġsneeze": 4777,
      "Ġremove": 4778,
      "Ġflutter": 4779,
      "Ġbeans": 4780,
      "Ġlugg": 4781,
      "icing": 4782,
      "Ġburied": 4783,
      "Ġluggage": 4784,
      "aped": 4785,
      "Ġtaller": 4786,
      "Ġyawned": 4787,
      "Ġweap": 4788,
      "Lisa": 4789,
      "ĠFo": 4790,
      "Ġimmediately": 4791,
      "riger": 4792,
      "Ġbravely": 4793,
      "Ġsparkling": 4794,
      "Ġringing": 4795,
      "Ġenter": 4796,
      "Ġrefriger": 4797,
      "Ġbegged": 4798,
      "Ġreverse": 4799,
      "Ġrefrigerator": 4800,
      "Ġshampoo": 4801,
      "Ġrabbits": 4802,
      "Ġearlier": 4803,
      "Ġbumped": 4804,
      "Ġroot": 4805,
      "ĠRe": 4806,
      "Ġbookshe": 4807,
      "Ġhits": 4808,
      "Ġdestroyed": 4809,
      "Welcome": 4810,
      "Ġlic": 4811,
      "Ġignore": 4812,
      "Ġinfant": 4813,
      "Ġport": 4814,
      "Ġsettled": 4815,
      "ero": 4816,
      "Ġhardly": 4817,
      "Ġdire": 4818,
      "Ġappreciate": 4819,
      "vet": 4820,
      "Ġhomes": 4821,
      "Ġwashing": 4822,
      "Ġgear": 4823,
      "Ġbeamed": 4824,
      "ĠJul": 4825,
      "rm": 4826,
      "Ġpages": 4827,
      "Ġrhy": 4828,
      "Ġsocks": 4829,
      "htray": 4830,
      "Ġashtray": 4831,
      "ĠEach": 4832,
      "Ġdestination": 4833,
      "ĠClara": 4834,
      "ĠHave": 4835,
      "asp": 4836,
      "Ġchores": 4837,
      "Ġchamber": 4838,
      "Ġclimbs": 4839,
      "Ġprepare": 4840,
      "Ġtore": 4841,
      "Ġhanger": 4842,
      "anna": 4843,
      "Ġsigns": 4844,
      "'ve": 4845,
      "Ġcherry": 4846,
      "Ġbreathe": 4847,
      "Ġremain": 4848,
      "Ġtherm": 4849,
      "Ġtutor": 4850,
      "With": 4851,
      "Ġpalm": 4852,
      "ĠIts": 4853,
      "Ġreplace": 4854,
      "Ġsparkle": 4855,
      "ĠBuzz": 4856,
      "ari": 4857,
      "ission": 4858,
      "Ġinvite": 4859,
      "Ġplays": 4860,
      "Ġdecorations": 4861,
      "Ġvanished": 4862,
      "Ġuniverse": 4863,
      "Ġtide": 4864,
      "reat": 4865,
      "Ġsolved": 4866,
      "Ġpermission": 4867,
      "Ġpraised": 4868,
      "Ġpride": 4869,
      "inky": 4870,
      "ĠPeople": 4871,
      "Ġvacation": 4872,
      "Ġtongue": 4873,
      "Ġbookshelf": 4874,
      "Ġpoison": 4875,
      "bbie": 4876,
      "Ġhills": 4877,
      "Ġadmir": 4878,
      "Ġdeeper": 4879,
      "Ġscooped": 4880,
      "Ġsits": 4881,
      "Ġscore": 4882,
      "Ġsparkles": 4883,
      "Ġexamine": 4884,
      "Ġstomach": 4885,
      "Ġthermomet": 4886,
      "nies": 4887,
      "Ġfestival": 4888,
      "Ġteaching": 4889,
      "Ġinsisted": 4890,
      "omob": 4891,
      "Ġfloated": 4892,
      "Ġquiz": 4893,
      "Ġcrunch": 4894,
      "Ġscratch": 4895,
      "Ġalright": 4896,
      "bbles": 4897,
      "Ġautomob": 4898,
      "osed": 4899,
      "Ġsimp": 4900,
      "ĠJames": 4901,
      "sing": 4902,
      "ĠGood": 4903,
      "xture": 4904,
      "Ġmailman": 4905,
      "Ġreceived": 4906,
      "Ġdifference": 4907,
      "ops": 4908,
      "Ġbelieved": 4909,
      "Ġchirping": 4910,
      "Ġthermometer": 4911,
      "Ġdaisy": 4912,
      "Ġbang": 4913,
      "Ġdigg": 4914,
      "Ġoranges": 4915,
      "Ġfloating": 4916,
      "Ġpatiently": 4917,
      "Ġpanic": 4918,
      "ents": 4919,
      "Ġstruggling": 4920,
      "Peter": 4921,
      "Ġachie": 4922,
      "Ġpulling": 4923,
      "Ġdigging": 4924,
      "Ġhers": 4925,
      "Ġdrain": 4926,
      "ĠFreddy": 4927,
      "Ġpunish": 4928,
      "Ġlicense": 4929,
      "Ġmodel": 4930,
      "Mark": 4931,
      "Ġranch": 4932,
      "thm": 4933,
      "Ġprovide": 4934,
      "Ġdare": 4935,
      "Ġsty": 4936,
      "Ġupstairs": 4937,
      "Ġrepeat": 4938,
      "Ok": 4939,
      "izard": 4940,
      "Ġgifts": 4941,
      "ĠBefore": 4942,
      "Ġencouraged": 4943,
      "Ġmeasured": 4944,
      "Ġbuzzing": 4945,
      "Ġrestore": 4946,
      "ĠSpike": 4947,
      "igail": 4948,
      "antly": 4949,
      "Ġshooting": 4950,
      "Ġjail": 4951,
      "Ġglo": 4952,
      "Ġcollection": 4953,
      "Ġneighborhood": 4954,
      "Ġinvit": 4955,
      "iers": 4956,
      "Ġbrain": 4957,
      "Ġguy": 4958,
      "Ġbathrobe": 4959,
      "Ġrhythm": 4960,
      "atch": 4961,
      "ĠMay": 4962,
      "Ġbites": 4963,
      "Ġnone": 4964,
      "Ġequ": 4965,
      "Ġrespons": 4966,
      "bey": 4967,
      "TMre": 4968,
      "osity": 4969,
      "sity": 4970,
      "ĠOllie": 4971,
      "Ġinclud": 4972,
      "Ġsew": 4973,
      "Ġgrape": 4974,
      "Ġcollecting": 4975,
      "Ġlabel": 4976,
      "Ġsausage": 4977,
      "Ġshot": 4978,
      "Ġworse": 4979,
      "Ġpatterns": 4980,
      "Ġapproached": 4981,
      "Ġsubway": 4982,
      "rise": 4983,
      "Ġmention": 4984,
      "Ġdiscuss": 4985,
      "Mmm": 4986,
      "Not": 4987,
      "Ġmall": 4988,
      "allen": 4989,
      "ĠMaggie": 4990,
      "Ġelephants": 4991,
      "Ġweeks": 4992,
      "Ġwhip": 4993,
      "Ġtease": 4994,
      "Ġmassage": 4995,
      "Ġjazz": 4996,
      "Ġspaces": 4997,
      "Ġsprinkles": 4998,
      "ging": 4999,
      "xy": 5000,
      "ĠV": 5001,
      "Ġsore": 5002,
      "Ġmelted": 5003,
      "These": 5004,
      "TMll": 5005,
      "ĠIs": 5006,
      "Ġchallen": 5007,
      "Ġsetting": 5008,
      "Ġsupposed": 5009,
      "Ġsip": 5010,
      "Ġshed": 5011,
      "act": 5012,
      "Ġbuckle": 5013,
      "All": 5014,
      "Ġsunrise": 5015,
      "Ġunite": 5016,
      "Ġbillboard": 5017,
      "Ġgirls": 5018,
      "Ġtwisted": 5019,
      "Ġbricks": 5020,
      "ium": 5021,
      "Ġspit": 5022,
      "Ġleak": 5023,
      "Ġoper": 5024,
      "Ġexercise": 5025,
      "Ġitem": 5026,
      "Ġmeowed": 5027,
      "Ġflav": 5028,
      "Ġairplane": 5029,
      "Ġvehicle": 5030,
      "Ġwizard": 5031,
      "allow": 5032,
      "Ġparts": 5033,
      "Ġwatches": 5034,
      "ĠRachel": 5035,
      "Ġdiscovery": 5036,
      "Ġjogging": 5037,
      "ĠKing": 5038,
      "Ġsoldiers": 5039,
      "fied": 5040,
      "Ġfut": 5041,
      "Ġhesit": 5042,
      "ĠCo": 5043,
      "Ġbak": 5044,
      "Fl": 5045,
      "Ġpoppy": 5046,
      "Ġfuture": 5047,
      "Ġpillows": 5048,
      "ĠBetsy": 5049,
      "Ġhate": 5050,
      "Ġglowed": 5051,
      "ĠPoppy": 5052,
      "Ġautomobile": 5053,
      "Ġgrey": 5054,
      "ude": 5055,
      "Ġuniversity": 5056,
      "Ġmarbles": 5057,
      "Sh": 5058,
      "Ġgust": 5059,
      "Ġsport": 5060,
      "aspoon": 5061,
      "ĠEveryday": 5062,
      "Ġmister": 5063,
      "Ġteaspoon": 5064,
      "Ġpigs": 5065,
      "Ġwhistled": 5066,
      "Ġgrocery": 5067,
      "Jake": 5068,
      "Ġrush": 5069,
      "Ġbrings": 5070,
      "ĠNut": 5071,
      "Ġfixing": 5072,
      "gy": 5073,
      "Ġgain": 5074,
      "Ġawe": 5075,
      "Ġevent": 5076,
      "ĠLater": 5077,
      "Ġactually": 5078,
      "Ġheat": 5079,
      "Ġmanage": 5080,
      "Ġurge": 5081,
      "Ġlets": 5082,
      "Ġwarning": 5083,
      "Ġscratched": 5084,
      "Ġsuffer": 5085,
      "Ġbeg": 5086,
      "Ġslice": 5087,
      "Ġremained": 5088,
      "Ġthrilled": 5089,
      "Ġburning": 5090,
      "cles": 5091,
      "asc": 5092,
      "ases": 5093,
      "Ġseats": 5094,
      "Ġgrinned": 5095,
      "bers": 5096,
      "ÅĵNo": 5097,
      "Ġgrowl": 5098,
      "Ġpaused": 5099,
      "Ġsurrounded": 5100,
      "Ouch": 5101,
      "umble": 5102,
      "Ġproblems": 5103,
      "Ġsings": 5104,
      "Ġstad": 5105,
      "Ġlick": 5106,
      "Ġstadium": 5107,
      "Would": 5108,
      "Ġchir": 5109,
      "Ġworks": 5110,
      "Ġzipped": 5111,
      "uing": 5112,
      "Ġtoe": 5113,
      "ĠPenny": 5114,
      "Ġchirped": 5115,
      "ishing": 5116,
      "Ġspill": 5117,
      "ĠZoe": 5118,
      "ĠSharing": 5119,
      "Ġnation": 5120,
      "Ġweapon": 5121,
      "Ġdrinking": 5122,
      "Ġdrinks": 5123,
      "ĠChirp": 5124,
      "Ġtwigs": 5125,
      "eed": 5126,
      "Ġcakes": 5127,
      "Ġrust": 5128,
      "emember": 5129,
      "Ġwhistling": 5130,
      "ĠRuby": 5131,
      "Ġscur": 5132,
      "Ġpossible": 5133,
      "Ġracing": 5134,
      "Ġordered": 5135,
      "Ġeff": 5136,
      "ĠSomeone": 5137,
      "Ġbeat": 5138,
      "Ġbrus": 5139,
      "Ġstrang": 5140,
      "Ġtracks": 5141,
      "Before": 5142,
      "Ġhurric": 5143,
      "Ġobserve": 5144,
      "Ġlect": 5145,
      "Ġpaints": 5146,
      "Ġreceive": 5147,
      "Ġtour": 5148,
      "Ġduring": 5149,
      "Ġsneezed": 5150,
      "Ġmarching": 5151,
      "Ġprayed": 5152,
      "do": 5153,
      "Emily": 5154,
      "Ġwaffles": 5155,
      "Ġlaid": 5156,
      "Ġdecision": 5157,
      "Ġwatered": 5158,
      "Ġhated": 5159,
      "ĠTina": 5160,
      "ĠJoy": 5161,
      "cious": 5162,
      "Ġours": 5163,
      "Ġsliding": 5164,
      "Ġmemory": 5165,
      "Ġx": 5166,
      "!\",": 5167,
      "Ġwherever": 5168,
      "Ġpotatoes": 5169,
      "Ġcontain": 5170,
      "Ġscreams": 5171,
      "Ġlecture": 5172,
      "ĠFro": 5173,
      "Ġraised": 5174,
      "Ġwaits": 5175,
      "Ready": 5176,
      "Ġcrunchy": 5177,
      "Ġspaceship": 5178,
      "Ġpetted": 5179,
      "Ġspoons": 5180,
      "Ġcartoons": 5181,
      "Ġinvitation": 5182,
      "Ġhurricane": 5183,
      "!'": 5184,
      "Ġearthqu": 5185,
      "Ġcrashed": 5186,
      "Ġolive": 5187,
      "Ġsatis": 5188,
      "Ġlily": 5189,
      "Ġwarn": 5190,
      "ĠLiz": 5191,
      "fy": 5192,
      "walk": 5193,
      "Ġfasc": 5194,
      "ities": 5195,
      "Ġflood": 5196,
      "Ġskipping": 5197,
      "Ġpeanuts": 5198,
      "Ġstrangers": 5199,
      "Ex": 5200,
      "Ġtomatoes": 5201,
      "Ġfed": 5202,
      "Ġswims": 5203,
      "Ġcurled": 5204,
      "Ġoperation": 5205,
      "oved": 5206,
      "Ġmitten": 5207,
      "Ġfireworks": 5208,
      "Ġsunlight": 5209,
      "Ġpupp": 5210,
      "Ġrecognized": 5211,
      "ÅĵThatÃ¢": 5212,
      "Ġmineral": 5213,
      "cc": 5214,
      "Ġremem": 5215,
      "Ġbeds": 5216,
      "Johnny": 5217,
      "Ġstrip": 5218,
      "Ġmeasuring": 5219,
      "hest": 5220,
      "Ġvel": 5221,
      "Ġcircus": 5222,
      "Ġchewed": 5223,
      "Le": 5224,
      "unday": 5225,
      "Ġdisagreed": 5226,
      "Ġremembers": 5227,
      "Ġvelvet": 5228,
      "Ġsafari": 5229,
      "Ġplanted": 5230,
      "Yum": 5231,
      "Ġkindly": 5232,
      "ipment": 5233,
      "Ġtalent": 5234,
      "Ġcontinue": 5235,
      "Ġlands": 5236,
      "Ġmouths": 5237,
      "ĠSunday": 5238,
      "Ġbuildings": 5239,
      "Ġsidewalk": 5240,
      "Ġeasier": 5241,
      "Ġprice": 5242,
      "Ġadmiring": 5243,
      "Ġequipment": 5244,
      "mother": 5245,
      "ĠSad": 5246,
      "Ġcomfy": 5247,
      "Ġwond": 5248,
      "Ġmonsters": 5249,
      "Ġbrick": 5250,
      "Ġbes": 5251,
      "Ġsecrets": 5252,
      "ÅĵIÃ¢": 5253,
      "bbled": 5254,
      "Ġattached": 5255,
      "Ġfascin": 5256,
      "Ġmeow": 5257,
      "Ġglitter": 5258,
      "Ġappear": 5259,
      "Ġmountains": 5260,
      "Ġblueberry": 5261,
      "Ġhappiest": 5262,
      "Ġtremb": 5263,
      "Ġflap": 5264,
      "Ġfet": 5265,
      "ĠCat": 5266,
      "Ġescaped": 5267,
      "ddy": 5268,
      "Ġfolded": 5269,
      "Ġrefreshed": 5270,
      "Ġbones": 5271,
      "Really": 5272,
      "Ġclearing": 5273,
      "Ġeffort": 5274,
      "amie": 5275,
      "seek": 5276,
      "ĠMe": 5277,
      "ĠLetÃ¢": 5278,
      "Ġselling": 5279,
      "\",": 5280,
      "Ġwre": 5281,
      "Ġcompany": 5282,
      "Ġbringing": 5283,
      "son": 5284,
      "Ġgaz": 5285,
      "ĠLuna": 5286,
      "Ġapologize": 5287,
      "Ġprepared": 5288,
      "Ġgloves": 5289,
      "Ġrevealed": 5290,
      "ĠNutty": 5291,
      "Ġearthquake": 5292,
      "Ġofficer": 5293,
      "Ġlips": 5294,
      "Ġbeside": 5295,
      "Ġwid": 5296,
      "Ġobey": 5297,
      "Ġnavy": 5298,
      "Ġonwards": 5299,
      "Ġweren": 5300,
      "Ġturning": 5301,
      "Ġtrapped": 5302,
      "ĠSteve": 5303,
      "Ġbleeding": 5304,
      "Ġcopper": 5305,
      "Ġanytime": 5306,
      "Ġsimple": 5307,
      "Ġweight": 5308,
      "Ġdoggy": 5309,
      "Ġmenu": 5310,
      "Ġsix": 5311,
      "Ġmuddy": 5312,
      "Ġguessed": 5313,
      "Ġleather": 5314,
      "Ġstripes": 5315,
      "enty": 5316,
      "ĠKatie": 5317,
      "Ġprecious": 5318,
      "Ġreminder": 5319,
      "Moral": 5320,
      "Ġladyb": 5321,
      "Ġpets": 5322,
      "Ro": 5323,
      "Ġwanting": 5324,
      "Ġdinosaurs": 5325,
      "Ġwaist": 5326,
      "ĠNot": 5327,
      "Ġslip": 5328,
      "loe": 5329,
      "zag": 5330,
      "Ġgotten": 5331,
      "Ġsucceeded": 5332,
      "Ġhist": 5333,
      "Ġallow": 5334,
      "Ġbye": 5335,
      "Ġcatching": 5336,
      "Ġsteel": 5337,
      "Ġhistory": 5338,
      "aded": 5339,
      "ĠMat": 5340,
      "Ġkeeper": 5341,
      "Ġsettle": 5342,
      "Somet": 5343,
      "Ġpeered": 5344,
      "Ġfirefight": 5345,
      "Ġbrand": 5346,
      "Ġcuddle": 5347,
      "Ġfash": 5348,
      "Ġoats": 5349,
      "ÅĵWe": 5350,
      "joyed": 5351,
      "Ġserved": 5352,
      "Ġeveryday": 5353,
      "Ġoverjoyed": 5354,
      "Ġvillag": 5355,
      "Ġscoop": 5356,
      "Ġfreeze": 5357,
      "Luckily": 5358,
      "idges": 5359,
      "Ġwisdom": 5360,
      "Ġpies": 5361,
      "avid": 5362,
      "Ġgained": 5363,
      "ÅĵThank": 5364,
      "Ġrested": 5365,
      "Ġpermit": 5366,
      "Ġstyle": 5367,
      "Ġrained": 5368,
      "Ġperched": 5369,
      "ĠAbigail": 5370,
      "Ġsoared": 5371,
      "Ġeats": 5372,
      "Ġpedal": 5373,
      "Ġcutting": 5374,
      "ĠChirpy": 5375,
      "Ġwonders": 5376,
      "Ġimage": 5377,
      "Ġtastes": 5378,
      "Ġshopping": 5379,
      "amb": 5380,
      "Ġprinter": 5381,
      "Ġbowed": 5382,
      "Ġcomforted": 5383,
      "Ġeagle": 5384,
      "igzag": 5385,
      "Susie": 5386,
      "ĠMilly": 5387,
      "Ġwooden": 5388,
      "Ġshadows": 5389,
      "Ġpupil": 5390,
      "Ġbridges": 5391,
      "Ġrang": 5392,
      "Ġwhatever": 5393,
      "Ġvoices": 5394,
      "Ġsnowball": 5395,
      "Ġanswers": 5396,
      "Ġfamil": 5397,
      "Ġacorns": 5398,
      "mble": 5399,
      "Ġstealing": 5400,
      "Ġfashion": 5401,
      "Ġdecides": 5402,
      "Ġvisiting": 5403,
      "First": 5404,
      "anta": 5405,
      "Ġdrag": 5406,
      "Ġhurried": 5407,
      "Ġcostumes": 5408,
      "Ġstitch": 5409,
      "Ġbrushed": 5410,
      "Ġagreement": 5411,
      "Ġdownstairs": 5412,
      "Ġwrites": 5413,
      "Ġnails": 5414,
      "oming": 5415,
      "Ġbreaking": 5416,
      "Ġemerg": 5417,
      "ien": 5418,
      "nie": 5419,
      "Ġcrept": 5420,
      "Ġexact": 5421,
      "Ġstruggled": 5422,
      "Ġcreation": 5423,
      "Ġresponsible": 5424,
      "Ġvillagers": 5425,
      "Ġripped": 5426,
      "Ġtwirling": 5427,
      "Ġsadness": 5428,
      "Ġcuriosity": 5429,
      "Ġbeneath": 5430,
      "ĠSomething": 5431,
      "ĠChr": 5432,
      "Ġdisturbed": 5433,
      "ding": 5434,
      "icorn": 5435,
      "Ġunderground": 5436,
      "Ġunicorn": 5437,
      "Ġemergen": 5438,
      "Ġpitch": 5439,
      "neath": 5440,
      "Ġtip": 5441,
      "Ġbun": 5442,
      "Ġweighed": 5443,
      "Ġtremble": 5444,
      "izing": 5445,
      "Ġaccidents": 5446,
      "Tweet": 5447,
      "Ġmice": 5448,
      "Ġpancakes": 5449,
      "gen": 5450,
      "Ġchef": 5451,
      "ĠRemy": 5452,
      "Ġfiremen": 5453,
      "Ġcomple": 5454,
      "Ġpracticing": 5455,
      "ays": 5456,
      "iggy": 5457,
      "len": 5458,
      "isten": 5459,
      "ĠThese": 5460,
      "Ġneighbors": 5461,
      "terday": 5462,
      "ĠJe": 5463,
      "Ġexamined": 5464,
      "Ġvict": 5465,
      "Ġdoctors": 5466,
      "Ġgrandmother": 5467,
      "annah": 5468,
      "xygen": 5469,
      "Ġbare": 5470,
      "Ġdied": 5471,
      "ĠFloppy": 5472,
      "Ġdecorated": 5473,
      "Ġlemons": 5474,
      "Ġargued": 5475,
      "ĠQu": 5476,
      "ira": 5477,
      "Ġknelt": 5478,
      "Ġspiders": 5479,
      "Ġclaps": 5480,
      "Ġbegin": 5481,
      "Ġowned": 5482,
      "Ġnetwork": 5483,
      "Ġrides": 5484,
      "Ġpadd": 5485,
      "ĠSunny": 5486,
      "Ġsting": 5487,
      "Ġsoak": 5488,
      "Ġrecognize": 5489,
      "Ġladybug": 5490,
      "Ġrealize": 5491,
      "Happy": 5492,
      "rr": 5493,
      "ĠLike": 5494,
      "Ġpeel": 5495,
      "Ġyelling": 5496,
      "Ġbeha": 5497,
      "Ġactiv": 5498,
      "ĠSpark": 5499,
      "ishes": 5500,
      "Ġbend": 5501,
      "Ġarea": 5502,
      "Goodbye": 5503,
      "Ġinch": 5504,
      "Ġkeeps": 5505,
      "Ġzero": 5506,
      "ĠKe": 5507,
      "ales": 5508,
      "Ġrele": 5509,
      "Ġpinched": 5510,
      "Ġsnail": 5511,
      "Ġsitu": 5512,
      "Ġmission": 5513,
      "Ġkeys": 5514,
      "Ġencourage": 5515,
      "Ġprune": 5516,
      "ashed": 5517,
      "Sometimes": 5518,
      "va": 5519,
      "ĠEl": 5520,
      "ffic": 5521,
      "Ġwinning": 5522,
      "ley": 5523,
      "Ġexit": 5524,
      "rol": 5525,
      "Ġwondering": 5526,
      "Ġruin": 5527,
      "Or": 5528,
      "mare": 5529,
      "Ġwagging": 5530,
      "Ġjogged": 5531,
      "Ġtraffic": 5532,
      "Ġaccom": 5533,
      "Fluffy": 5534,
      "Ġexactly": 5535,
      "Ġloose": 5536,
      "Ġzooming": 5537,
      "Ġstirring": 5538,
      "Ġolives": 5539,
      "Ġstudied": 5540,
      "Ġlines": 5541,
      "ĠHoppy": 5542,
      "Ġzigzag": 5543,
      "Ġpastel": 5544,
      "Ġtune": 5545,
      "Rex": 5546,
      "rin": 5547,
      "Ġcape": 5548,
      "riage": 5549,
      "laire": 5550,
      "Ġsneaked": 5551,
      "Ġtugged": 5552,
      "Ġrelease": 5553,
      "Ġtickets": 5554,
      "Ġsatisfied": 5555,
      "Ġwreck": 5556,
      "ib": 5557,
      "Ġoxygen": 5558,
      "Ġeight": 5559,
      "Ġsiren": 5560,
      "Ġbunnies": 5561,
      "looking": 5562,
      "gers": 5563,
      "Ġunderneath": 5564,
      "Ġunlocked": 5565,
      "uke": 5566,
      "Ġago": 5567,
      "ĠRa": 5568,
      "Ġnightmare": 5569,
      "Ġbuckets": 5570,
      "Ġchallenge": 5571,
      "Ye": 5572,
      "Ġoutdo": 5573,
      "ĠFirst": 5574,
      "Ġslapped": 5575,
      "Ġlandsc": 5576,
      "Ġhonk": 5577,
      "Ġinstruct": 5578,
      "Ġfascinated": 5579,
      "Ġcaut": 5580,
      "Ġnicer": 5581,
      "ulu": 5582,
      "Ġaccompl": 5583,
      "Un": 5584,
      "Ġweb": 5585,
      "ĠStop": 5586,
      "Ġshivering": 5587,
      "ĠBir": 5588,
      "Ġloving": 5589,
      "Ġpockets": 5590,
      "Ġstretching": 5591,
      "ĠTiny": 5592,
      "ĠHowever": 5593,
      "Ġpiles": 5594,
      "Ġpunished": 5595,
      "zen": 5596,
      "Ġdent": 5597,
      "Ġmittens": 5598,
      "ĠLucky": 5599,
      "Ġplanned": 5600,
      "Ġprotected": 5601,
      "Ġsolut": 5602,
      "Ġneighbourhood": 5603,
      "Ġcompetition": 5604,
      "Ġdraws": 5605,
      "ĠOl": 5606,
      "Ġgathering": 5607,
      "Ġproperly": 5608,
      "ĠBubbles": 5609,
      "ĠUncle": 5610,
      "Ġitems": 5611,
      "ĠTw": 5612,
      "usan": 5613,
      "Ġcontrol": 5614,
      "Ġsupplies": 5615,
      "Ġemergency": 5616,
      "Ġlied": 5617,
      "Ġshoulders": 5618,
      "indy": 5619,
      "Ġparked": 5620,
      "Ġtravell": 5621,
      "Ġsights": 5622,
      "Ġsoaring": 5623,
      "Ġmarkers": 5624,
      "Ġlandscape": 5625,
      "Dave": 5626,
      "ik": 5627,
      "kins": 5628,
      "ÅĵCan": 5629,
      "Ġperfor": 5630,
      "ĠJan": 5631,
      "Ġpearl": 5632,
      "ÅĵDon": 5633,
      "Ġruler": 5634,
      "Ġdeser": 5635,
      "Ġfetch": 5636,
      "ĠItÃ¢": 5637,
      "Ġfrosting": 5638,
      "Ġbouncy": 5639,
      "Ġann": 5640,
      "Ġstruck": 5641,
      "Ġtouching": 5642,
      "Andy": 5643,
      "Ġinstructions": 5644,
      "ayla": 5645,
      "ĠSanta": 5646,
      "ica": 5647,
      "Ġburrow": 5648,
      ".'": 5649,
      "Ġpeaches": 5650,
      "Ġprinted": 5651,
      "Ġloaded": 5652,
      "inda": 5653,
      "Ġsisters": 5654,
      "ĠAnne": 5655,
      "omas": 5656,
      "thank": 5657,
      "Ġfoods": 5658,
      "Ġmuscles": 5659,
      "Ġintroduc": 5660,
      "Ġbarely": 5661,
      "ÅĵLook": 5662,
      "Ġmarks": 5663,
      "bbing": 5664,
      "Ġopin": 5665,
      "Ġstole": 5666,
      "Ġcrumb": 5667,
      "Ġdrift": 5668,
      "Ġmixing": 5669,
      "Ġincrease": 5670,
      "Ġvictory": 5671,
      "Ġtonight": 5672,
      "Ġdam": 5673,
      "agull": 5674,
      "Joey": 5675,
      "Ġfrozen": 5676,
      "Ġrainbows": 5677,
      "Ġapplauded": 5678,
      "Mar": 5679,
      "Ġmast": 5680,
      "Ġbudge": 5681,
      "Ġsilence": 5682,
      "bric": 5683,
      "ury": 5684,
      "Ġsides": 5685,
      "Ġeast": 5686,
      "ĠBig": 5687,
      "Ġfabric": 5688,
      "Ġstrings": 5689,
      "Ġrocked": 5690,
      "shing": 5691,
      "ux": 5692,
      "Ġourselves": 5693,
      "Teddy": 5694,
      "ĠDid": 5695,
      "Ġteasing": 5696,
      "Ġrubbing": 5697,
      "Ġvent": 5698,
      "Ġgiggling": 5699,
      "âĤ¬âĢĿ": 5700,
      "Bella": 5701,
      "Ġsoaked": 5702,
      "Ġguns": 5703,
      "Ġbank": 5704,
      "Ġseagull": 5705,
      "Ġoutdoors": 5706,
      "ĠAn": 5707,
      "Ġpretti": 5708,
      "aky": 5709,
      "Ġplanets": 5710,
      "Ġprettiest": 5711,
      "Ġbottles": 5712,
      "Ġbrushes": 5713,
      "Ġcompleted": 5714,
      "Ġreleased": 5715,
      "edding": 5716,
      "Ġchases": 5717,
      "Ġsweeties": 5718,
      "Ġpouring": 5719,
      "uesday": 5720,
      "Ġscurried": 5721,
      "Ġdragons": 5722,
      "Ġbunch": 5723,
      "Ġvowed": 5724,
      "Ġpears": 5725,
      "Ġprints": 5726,
      "Ġseason": 5727,
      "oed": 5728,
      "Ġwest": 5729,
      "Ġstair": 5730,
      "Ġmovies": 5731,
      "Ġsurface": 5732,
      "Ġpurred": 5733,
      "Ġtim": 5734,
      "Ġpoking": 5735,
      "Ġbloomed": 5736,
      "ĠFrank": 5737,
      "Ġdemanded": 5738,
      "nes": 5739,
      "oh": 5740,
      "ĠBeth": 5741,
      "ĠletÃ¢": 5742,
      "Ġbaked": 5743,
      "bies": 5744,
      "Ġtickle": 5745,
      "Ġintroduce": 5746,
      "Mr": 5747,
      "Ġ1": 5748,
      "Ġmater": 5749,
      "Ġsteep": 5750,
      "Ġdiscovering": 5751,
      "Ġcamping": 5752,
      "Ġmateri": 5753,
      "Ġbroom": 5754,
      "ĠSuzy": 5755,
      "Ġdragged": 5756,
      "Ġwinner": 5757,
      "Ġmuffins": 5758,
      "uctantly": 5759,
      "Ġsighs": 5760,
      "George": 5761,
      "ednes": 5762,
      "imy": 5763,
      "Ġcatches": 5764,
      "Ġbabies": 5765,
      "ednesday": 5766,
      "ĠJosh": 5767,
      "Ġmachines": 5768,
      "Ġurged": 5769,
      "ĠOnce": 5770,
      "ĠTuesday": 5771,
      "Ġmentioned": 5772,
      "zie": 5773,
      "Ġlux": 5774,
      "Ġherbs": 5775,
      "Ġda": 5776,
      "icked": 5777,
      "ÅĵHello": 5778,
      "ÅĵThis": 5779,
      "Ġbeard": 5780,
      "Ġroaring": 5781,
      "Cl": 5782,
      "ĠCarl": 5783,
      "Ġsinger": 5784,
      "Ġscreaming": 5785,
      "Ġstamps": 5786,
      "Ġconfident": 5787,
      "ora": 5788,
      "ĠWednesday": 5789,
      "Ġcones": 5790,
      "Ġproject": 5791,
      "Ġinterest": 5792,
      "Ġguys": 5793,
      "ena": 5794,
      "Ġdrives": 5795,
      "Ġhorns": 5796,
      "dam": 5797,
      "jam": 5798,
      "Ġpretends": 5799,
      "avi": 5800,
      "Ġpowers": 5801,
      "Ġtexture": 5802,
      "Mike": 5803,
      "though": 5804,
      "Ġpassing": 5805,
      "ĠChloe": 5806,
      "ĠBetty": 5807,
      "Ah": 5808,
      "ĠAm": 5809,
      "ĠJones": 5810,
      "ern": 5811,
      "ĠPip": 5812,
      "Ġcontest": 5813,
      "Ġribbons": 5814,
      "Ġcrowd": 5815,
      "Ġwound": 5816,
      "Ġgoals": 5817,
      "ason": 5818,
      "Ġranger": 5819,
      "Ġchips": 5820,
      "Ġstudying": 5821,
      "Ġbalancing": 5822,
      "Lola": 5823,
      "Ġmatched": 5824,
      "Ġexpect": 5825,
      "Ġresult": 5826,
      "Ġsausages": 5827,
      "Ġdisagree": 5828,
      "Ġcal": 5829,
      "Ġpout": 5830,
      "ilo": 5831,
      "ĠHa": 5832,
      "Ġsorted": 5833,
      "Ġmarriage": 5834,
      "Bobby": 5835,
      "Ġhighest": 5836,
      "Ġpebbles": 5837,
      "Ġcurly": 5838,
      "Henry": 5839,
      "Ġkicking": 5840,
      "Ġsuitc": 5841,
      "Ġgazed": 5842,
      "Ġshock": 5843,
      "ĠDavid": 5844,
      "Ġforgi": 5845,
      "Ġcuts": 5846,
      "Ġreluctantly": 5847,
      "Ġpatience": 5848,
      "ĠCoco": 5849,
      "Ġshelves": 5850,
      "Ġshivered": 5851,
      "ĠRabbit": 5852,
      "Ġge": 5853,
      "Ġhugging": 5854,
      "Ġchat": 5855,
      "Ġstrike": 5856,
      "Ġrepeated": 5857,
      "Maggie": 5858,
      "uzz": 5859,
      "fit": 5860,
      "uly": 5861,
      "Ġyouth": 5862,
      "Ġwaiter": 5863,
      "Ġcurtains": 5864,
      "ĠJulie": 5865,
      "Ġfault": 5866,
      "Ġacted": 5867,
      "Ella": 5868,
      "Paul": 5869,
      "Ġsway": 5870,
      "Ġwedding": 5871,
      "Ġgrant": 5872,
      "Ġflags": 5873,
      "Ġplenty": 5874,
      "die": 5875,
      "Ġti": 5876,
      "exp": 5877,
      "Ġfigured": 5878,
      "Ġgoodnight": 5879,
      "Ġmatching": 5880,
      "Ġthreat": 5881,
      "ĠHop": 5882,
      "ĠJamie": 5883,
      "Ġpaintings": 5884,
      "Ġtwinkling": 5885,
      "Ġfart": 5886,
      "ĠBye": 5887,
      "Ġoutfit": 5888,
      "Ġincluded": 5889,
      "Ġcautious": 5890,
      "Pete": 5891,
      "Remember": 5892,
      "Ġslimy": 5893,
      "Ġpoliceman": 5894,
      "Ġchewing": 5895,
      "eezing": 5896,
      "Ġdusty": 5897,
      "Ġregretted": 5898,
      "Kitty": 5899,
      "esome": 5900,
      "Ġtheirs": 5901,
      "Ġsweets": 5902,
      "Ġentire": 5903,
      "Ġsolution": 5904,
      "Ġintroduced": 5905,
      "Ġtowels": 5906,
      "irts": 5907,
      "Ġsorting": 5908,
      "ĠAlways": 5909,
      "Grandpa": 5910,
      "Ġblooming": 5911,
      "Ġpenguins": 5912,
      "Ġsituation": 5913,
      "ĠTilly": 5914,
      "Ġthro": 5915,
      "usted": 5916,
      "ledge": 5917,
      "Ġrecorded": 5918,
      "lowly": 5919,
      "expected": 5920,
      "Ġstare": 5921,
      "Ġguest": 5922,
      "Grace": 5923,
      "Ġinclude": 5924,
      "Ġthroat": 5925,
      "ivery": 5926,
      "you": 5927,
      "Ġflat": 5928,
      "ĠCar": 5929,
      "Ġrocking": 5930,
      "ults": 5931,
      "Ġachieve": 5932,
      "hins": 5933,
      "Ġunexpected": 5934,
      "Uh": 5935,
      "bl": 5936,
      "mas": 5937,
      "Ġheel": 5938,
      "Ġknowledge": 5939,
      "bert": 5940,
      "Afterwards": 5941,
      "ĠcanÃ¢": 5942,
      "ĠRob": 5943,
      "Ġprunes": 5944,
      "Ġdentist": 5945,
      "ĠSure": 5946,
      "igi": 5947,
      "Ġblink": 5948,
      "Ġsticking": 5949,
      "Ġcheering": 5950,
      "izzie": 5951,
      "Ġlibrarian": 5952,
      "Ġrescued": 5953,
      "Ġagrees": 5954,
      "ĠSusan": 5955,
      "Ġstaring": 5956,
      "Ġtruly": 5957,
      "Ġsnugg": 5958,
      "Ġspraying": 5959,
      "cuse": 5960,
      "Ġroots": 5961,
      "Ġawesome": 5962,
      "...": 5963,
      "Leo": 5964,
      "Ġluxury": 5965,
      "jamas": 5966,
      "vin": 5967,
      "ĠLulu": 5968,
      "Ġcompletely": 5969,
      "ĠChrist": 5970,
      "Yeah": 5971,
      "ÅĵDonÃ¢": 5972,
      "iar": 5973,
      "hell": 5974,
      "Ġast": 5975,
      "itely": 5976,
      "Ġhomework": 5977,
      "Ġwritten": 5978,
      "Ġcaused": 5979,
      "Ġfoc": 5980,
      "Ġmotion": 5981,
      "Sophie": 5982,
      "Ġlap": 5983,
      "Ġlearns": 5984,
      "Ġuses": 5985,
      "Ġgrowling": 5986,
      "Ġarguing": 5987,
      "Ġboom": 5988,
      "essie": 5989,
      "Ġimportance": 5990,
      "Ġcreating": 5991,
      "Ġzookeeper": 5992,
      "Ġbravery": 5993,
      "Ġwandering": 5994,
      "Excuse": 5995,
      "Ġtrembling": 5996,
      "hello": 5997,
      "Ġdared": 5998,
      "Ġshined": 5999,
      "Ġexha": 6000,
      "Ġscales": 6001,
      "Ġrolls": 6002,
      "Ġroads": 6003,
      "ĠZoom": 6004,
      "ĠChristmas": 6005,
      "go": 6006,
      "Ġslap": 6007,
      "Ġdelivery": 6008,
      "Ġworkers": 6009,
      "Ġcrackers": 6010,
      "njoy": 6011,
      "vers": 6012,
      "oys": 6013,
      "ĠGr": 6014,
      "Ġarrive": 6015,
      "Ġdirection": 6016,
      "immer": 6017,
      "ÅĵOh": 6018,
      "Ġreaching": 6019,
      "Ġsafer": 6020,
      "Ġreplac": 6021,
      "Mittens": 6022,
      "Ġbead": 6023,
      "Ġkneeled": 6024,
      "Ġbelly": 6025,
      "asm": 6026,
      "Ġsnakes": 6027,
      "Ġwires": 6028,
      "Mrs": 6029,
      "Ġscra": 6030,
      "Ġcomm": 6031,
      "Ġstruggle": 6032,
      "opes": 6033,
      "boat": 6034,
      "Ġexpected": 6035,
      "ĠSadly": 6036,
      "Ġexhausted": 6037,
      "une": 6038,
      "icky": 6039,
      "Ġhealed": 6040,
      "Ġorganizing": 6041,
      "Ġventured": 6042,
      "aa": 6043,
      "Ġwink": 6044,
      "ĠJu": 6045,
      "Ġmane": 6046,
      "lowers": 6047,
      "ĠMatt": 6048,
      "ĠYes": 6049,
      "Ġlamb": 6050,
      "Ġbecoming": 6051,
      "Ġgreet": 6052,
      "Ġcrumbs": 6053,
      "ences": 6054,
      "lee": 6055,
      "Ġflames": 6056,
      "Ġusual": 6057,
      "ĠLeave": 6058,
      "Ġcrabs": 6059,
      "Ġdolphins": 6060,
      "ĠJohnson": 6061,
      "Ġpajamas": 6062,
      "oline": 6063,
      "Ġinviting": 6064,
      "Ġworries": 6065,
      "angled": 6066,
      "Ġleader": 6067,
      "Ġpencils": 6068,
      "irm": 6069,
      "Ġunited": 6070,
      "Ġowners": 6071,
      "Ġstorekeeper": 6072,
      "iles": 6073,
      "ÅĵWhy": 6074,
      "Ġpacking": 6075,
      "Ġrelief": 6076,
      "Ġbaker": 6077,
      "Ġheav": 6078,
      "Ġboo": 6079,
      "Ġfirm": 6080,
      "ĠMart": 6081,
      "ĠLou": 6082,
      "Ġpolishing": 6083,
      "Ġpots": 6084,
      "Ġtraveled": 6085,
      "Ġtimer": 6086,
      "Ġcash": 6087,
      "Ġfairies": 6088,
      "Ġsuitcase": 6089,
      "ĠyouÃ¢": 6090,
      "Ġcloses": 6091,
      "ĠJessie": 6092,
      "Ġcough": 6093,
      "ĠPipp": 6094,
      "Ġworker": 6095,
      "Ġpartic": 6096,
      "Ġrockets": 6097,
      "ĠAbby": 6098,
      "Ġpatted": 6099,
      "Ġtrips": 6100,
      "Ġvanish": 6101,
      "Ġradishes": 6102,
      "However": 6103,
      "Ġpeeking": 6104,
      "Ġdirect": 6105,
      "ĠwasnÃ¢": 6106,
      "Ġvalued": 6107,
      "Ġprayer": 6108,
      "Ġseems": 6109,
      "Ġquacked": 6110,
      "int": 6111,
      "Ġfara": 6112,
      "Ġstartled": 6113,
      "Ġmisses": 6114,
      "Ġdesp": 6115,
      "Ġfaraway": 6116,
      "Ġcent": 6117,
      "iding": 6118,
      "Ġcountryside": 6119,
      "Ġmelting": 6120,
      "Ġphotos": 6121,
      "Ġitchy": 6122,
      "Ġusually": 6123,
      "Ġgroceries": 6124,
      "ĠUnfortunately": 6125,
      "Ġflavor": 6126,
      "James": 6127,
      "Ġcans": 6128,
      "Ġrestored": 6129,
      "Ġreveal": 6130,
      "Ġwiggled": 6131,
      "Ġinterested": 6132,
      "ords": 6133,
      "Ġstern": 6134,
      "Ġremoved": 6135,
      "Ġfuzzy": 6136,
      "Ġbalanced": 6137,
      "Ġseesaw": 6138,
      "Ġresting": 6139,
      "ĠOut": 6140,
      "Ġscru": 6141,
      "Ġknights": 6142,
      "Bad": 6143,
      "Ġstem": 6144,
      "Ġchuck": 6145,
      "ĠClaire": 6146,
      "Ġopening": 6147,
      "ĠJenna": 6148,
      "Ġteaches": 6149,
      "Fine": 6150,
      "Ġrisk": 6151,
      "Ġwrist": 6152,
      "ĠThomas": 6153,
      "Ġcracked": 6154,
      "Ġwinked": 6155,
      "ĠBeing": 6156,
      "ĠJeff": 6157,
      "Ġopinion": 6158,
      "Ġcous": 6159,
      "ids": 6160,
      "Ġleap": 6161,
      "Ġeverybody": 6162,
      "Ġdesert": 6163,
      "Ġsneaky": 6164,
      "Annie": 6165,
      "Ġhissed": 6166,
      "ĠFor": 6167,
      "Ġrubs": 6168,
      "Ġobserved": 6169,
      "Ġtwinkle": 6170,
      "Ġcause": 6171,
      "Ġcott": 6172,
      "Ġsled": 6173,
      "Ġunf": 6174,
      "Ġparticular": 6175,
      "Ġlined": 6176,
      "Ġden": 6177,
      "Ġseven": 6178,
      "Ġroses": 6179,
      "Ġprincesses": 6180,
      "Ġpastels": 6181,
      "Ġpoems": 6182,
      "Fred": 6183,
      "Ġsigned": 6184,
      "Ġtickled": 6185,
      "Ġfaced": 6186,
      "ĠLinda": 6187,
      "Ġtractor": 6188,
      "Ġmagnets": 6189,
      "Ġactivities": 6190,
      "Alex": 6191,
      "Run": 6192,
      "ĠBoth": 6193,
      "Millie": 6194,
      "Ġwasted": 6195,
      "Ġswooped": 6196,
      "brush": 6197,
      "Ġseashell": 6198,
      "ĠFollow": 6199,
      "Ġsnowballs": 6200,
      "Rose": 6201,
      "Sp": 6202,
      "dies": 6203,
      "rance": 6204,
      "Ġrings": 6205,
      "ĠBy": 6206,
      "Ġreply": 6207,
      "ophia": 6208,
      "Ġsilent": 6209,
      "Ġstaying": 6210,
      "ĠPandy": 6211,
      "Ġsingle": 6212,
      "Ġadding": 6213,
      "Ġcubes": 6214,
      "Ġbeads": 6215,
      "aze": 6216,
      "umm": 6217,
      "ĠLuke": 6218,
      "Ġcoloured": 6219,
      "Ġsandcastles": 6220,
      "Ġreplaced": 6221,
      "Fr": 6222,
      "Ġhi": 6223,
      "Ġkites": 6224,
      "Ġswirl": 6225,
      "Ġstolen": 6226,
      "acob": 6227,
      "Ġtricked": 6228,
      "Ġmarker": 6229,
      "Ġprovided": 6230,
      "Ġfirefighters": 6231,
      "ĠSorry": 6232,
      "Ġhowever": 6233,
      "Ġremote": 6234,
      "Charlie": 6235,
      "ĠFox": 6236,
      "Ġfarther": 6237,
      "Ġfreed": 6238,
      "isies": 6239,
      "ĠJon": 6240,
      "Ġnaps": 6241,
      "Ġlollipops": 6242,
      "Ġdaisies": 6243,
      "Ġlung": 6244,
      "Ġdipped": 6245,
      "Ġwears": 6246,
      "ĠPut": 6247,
      "Ġbowls": 6248,
      "ÅĵWhatÃ¢": 6249,
      "Ġpaddled": 6250,
      "Ġspike": 6251,
      "Ġcashier": 6252,
      "Ġcolored": 6253,
      "Ġpastries": 6254,
      "ĠQuack": 6255,
      "hee": 6256,
      "Ġnect": 6257,
      "ĠLizzy": 6258,
      "ĠEarth": 6259,
      "ĠEnjoy": 6260,
      "Ġbadge": 6261,
      "ĠDoggy": 6262,
      "Ġnectar": 6263,
      "Ġsobbed": 6264,
      "Ġcelebration": 6265,
      "ĠKeep": 6266,
      "Bl": 6267,
      "Ġlogs": 6268,
      "ĠJazz": 6269,
      "coat": 6270,
      "ĠY": 6271,
      "Ġslam": 6272,
      "ÅĵMommy": 6273,
      "Ġdarkness": 6274,
      "Ġprotecting": 6275,
      "Ġminerals": 6276,
      "Ġaff": 6277,
      "ana": 6278,
      "Ġliqu": 6279,
      "Ġtallest": 6280,
      "Ġmarked": 6281,
      "Ġawake": 6282,
      "ĠBuzzy": 6283,
      "Ġcopy": 6284,
      "Ġsquealed": 6285,
      "Ġstroll": 6286,
      "Ġty": 6287,
      "Ġbumpy": 6288,
      "Ġsnat": 6289,
      "Ġforehead": 6290,
      "Ġsmiley": 6291,
      "Ġfilling": 6292,
      "Ġsplashes": 6293,
      "Ġrobb": 6294,
      "ĠGigi": 6295,
      "ĠOw": 6296,
      "Ġwipes": 6297,
      "Ġhelmets": 6298,
      "Ġmasks": 6299,
      "abel": 6300,
      "Ġtalented": 6301,
      "ĠHappy": 6302,
      "Danny": 6303,
      "Ġyounger": 6304,
      "bbly": 6305,
      "Ġtwin": 6306,
      "Ġgems": 6307,
      "Ġcautiously": 6308,
      "tle": 6309,
      "Ġgaze": 6310,
      "aty": 6311,
      "Ġyourselves": 6312,
      "Ġstays": 6313,
      "Ġglasses": 6314,
      "yond": 6315,
      "Ġwow": 6316,
      "ĠSlowly": 6317,
      "Ġbeyond": 6318,
      "Ġexplorers": 6319,
      "Ġraincoat": 6320,
      "Ġreads": 6321,
      "Ġpolished": 6322,
      "Ġblows": 6323,
      "Ġcovers": 6324,
      "Ġdirections": 6325,
      "Some": 6326,
      "Ġcust": 6327,
      "ĠHannah": 6328,
      "sty": 6329,
      "ĠLuckily": 6330,
      "ĠFriend": 6331,
      "Ġhealth": 6332,
      "Ġtipt": 6333,
      "boo": 6334,
      "ĠWatch": 6335,
      "Ġlistens": 6336,
      "Ġattack": 6337,
      "Ġactions": 6338,
      "ĠMel": 6339,
      "ĠWater": 6340,
      "Ġsailboat": 6341,
      "Ġmiles": 6342,
      "Ġentrance": 6343,
      "Ġfluttered": 6344,
      "Ġaccomplish": 6345,
      "ĠÌ": 6346,
      "Ġbehavi": 6347,
      "Ġmushrooms": 6348,
      "Ġpedals": 6349,
      "Ġfamilies": 6350,
      "Ġchuckled": 6351,
      "Harry": 6352,
      "Ġdots": 6353,
      "Ġyesterday": 6354,
      "Ġsecure": 6355,
      "Ġclowns": 6356,
      "Ġrefle": 6357,
      "fl": 6358,
      "Ġsomebody": 6359,
      "Ġknees": 6360,
      "Ġspeaking": 6361,
      "Ġtricky": 6362,
      "cited": 6363,
      "cers": 6364,
      "Ġbars": 6365,
      "Ġjoking": 6366,
      "Ġbuying": 6367,
      "Ġseeker": 6368,
      "affes": 6369,
      "Ġinsects": 6370,
      "Ġcustom": 6371,
      "Sandy": 6372,
      "Ġopp": 6373,
      "Ġripe": 6374,
      "ppers": 6375,
      "ĠMad": 6376,
      "ĠAunt": 6377,
      "Ġconn": 6378,
      "Ġhider": 6379,
      "iki": 6380,
      "Sad": 6381,
      "ĠGet": 6382,
      "Ġfroze": 6383,
      "Ġbumps": 6384,
      "Ġknocks": 6385,
      "Ġcheeks": 6386,
      "ners": 6387,
      "Ġparties": 6388,
      "Ġgiraffes": 6389,
      "Ġbeginning": 6390,
      "Ġmes": 6391,
      "ĠTess": 6392,
      "ĠMon": 6393,
      "itches": 6394,
      "ĠSuzie": 6395,
      "Ġliquid": 6396,
      "ĠÌĥ": 6397,
      "Ġmesmer": 6398,
      "Ġthorn": 6399
    },
    "merges": [
      [
        "h",
        "e"
      ],
      [
        "Ġ",
        "t"
      ],
      [
        "Ġ",
        "a"
      ],
      [
        "Ġ",
        "s"
      ],
      [
        "Ġ",
        "w"
      ],
      [
        "n",
        "d"
      ],
      [
        "Ġt",
        "he"
      ],
      [
        "e",
        "d"
      ],
      [
        "Ġa",
        "nd"
      ],
      [
        "Ġt",
        "o"
      ],
      [
        "Ġ",
        "b"
      ],
      [
        "i",
        "n"
      ],
      [
        "Ġ",
        "h"
      ],
      [
        "Ġw",
        "a"
      ],
      [
        "r",
        "e"
      ],
      [
        "o",
        "u"
      ],
      [
        "Ġ",
        "f"
      ],
      [
        "i",
        "t"
      ],
      [
        "Ġ",
        "l"
      ],
      [
        "Ġ",
        "c"
      ],
      [
        "Ġ",
        "d"
      ],
      [
        "e",
        "r"
      ],
      [
        "Ġ",
        "he"
      ],
      [
        "Ġ",
        "m"
      ],
      [
        "Ġ",
        "p"
      ],
      [
        "Ġwa",
        "s"
      ],
      [
        "Ġ",
        "T"
      ],
      [
        "o",
        "m"
      ],
      [
        "Ġ",
        "o"
      ],
      [
        "a",
        "y"
      ],
      [
        "a",
        "r"
      ],
      [
        "i",
        "s"
      ],
      [
        "in",
        "g"
      ],
      [
        "i",
        "l"
      ],
      [
        "Ġ",
        "g"
      ],
      [
        "i",
        "d"
      ],
      [
        "a",
        "t"
      ],
      [
        "e",
        "n"
      ],
      [
        "Ġ",
        "n"
      ],
      [
        "Ġs",
        "a"
      ],
      [
        "Ġh",
        "a"
      ],
      [
        "ĠT",
        "he"
      ],
      [
        "Ġ",
        "S"
      ],
      [
        "a",
        "n"
      ],
      [
        "i",
        "m"
      ],
      [
        "o",
        "r"
      ],
      [
        "o",
        "n"
      ],
      [
        "Ġ",
        "it"
      ],
      [
        "Ġt",
        "h"
      ],
      [
        "l",
        "l"
      ],
      [
        "l",
        "e"
      ],
      [
        "Ġ",
        "H"
      ],
      [
        "o",
        "t"
      ],
      [
        "Ġhe",
        "r"
      ],
      [
        "e",
        "t"
      ],
      [
        "i",
        "r"
      ],
      [
        "ĠS",
        "he"
      ],
      [
        "e",
        "s"
      ],
      [
        "ĠH",
        "e"
      ],
      [
        "Ġ",
        "in"
      ],
      [
        "v",
        "er"
      ],
      [
        "ĠThe",
        "y"
      ],
      [
        "u",
        "t"
      ],
      [
        "o",
        "w"
      ],
      [
        "c",
        "k"
      ],
      [
        "Ġ",
        "e"
      ],
      [
        "Ġ",
        "u"
      ],
      [
        "Ġ",
        "y"
      ],
      [
        "l",
        "d"
      ],
      [
        "o",
        "o"
      ],
      [
        "il",
        "y"
      ],
      [
        "Ġsa",
        "id"
      ],
      [
        "i",
        "g"
      ],
      [
        "Ġ",
        "r"
      ],
      [
        "Ġb",
        "e"
      ],
      [
        "Ġ",
        "\""
      ],
      [
        "a",
        "m"
      ],
      [
        "Ġ",
        "I"
      ],
      [
        "Ġs",
        "t"
      ],
      [
        "k",
        "e"
      ],
      [
        "c",
        "e"
      ],
      [
        "v",
        "e"
      ],
      [
        "it",
        "h"
      ],
      [
        "p",
        "p"
      ],
      [
        "Ġs",
        "he"
      ],
      [
        "L",
        "ily"
      ],
      [
        "Ġw",
        "ith"
      ],
      [
        "O",
        "n"
      ],
      [
        "Ġo",
        "n"
      ],
      [
        "Ġy",
        "ou"
      ],
      [
        "k",
        "ed"
      ],
      [
        "Ġo",
        "f"
      ],
      [
        "r",
        "i"
      ],
      [
        "Ġp",
        "l"
      ],
      [
        "n",
        "t"
      ],
      [
        "Ġh",
        "is"
      ],
      [
        "a",
        "d"
      ],
      [
        "Ġs",
        "o"
      ],
      [
        "ver",
        "y"
      ],
      [
        "Ġd",
        "ay"
      ],
      [
        "Ġth",
        "at"
      ],
      [
        "Ġu",
        "p"
      ],
      [
        "Ġ",
        "Lily"
      ],
      [
        "Ġpl",
        "ay"
      ],
      [
        "Ġha",
        "d"
      ],
      [
        "Ġthe",
        "y"
      ],
      [
        "s",
        "t"
      ],
      [
        "Ġw",
        "e"
      ],
      [
        "Ġm",
        "om"
      ],
      [
        "Ġ",
        "B"
      ],
      [
        "Ġf",
        "or"
      ],
      [
        "e",
        "l"
      ],
      [
        "u",
        "n"
      ],
      [
        "ou",
        "ld"
      ],
      [
        "'",
        "s"
      ],
      [
        "m",
        "y"
      ],
      [
        "Ġl",
        "i"
      ],
      [
        "T",
        "he"
      ],
      [
        "c",
        "h"
      ],
      [
        "Ġha",
        "pp"
      ],
      [
        "Ġwa",
        "nt"
      ],
      [
        "en",
        "t"
      ],
      [
        "Ġs",
        "h"
      ],
      [
        "it",
        "t"
      ],
      [
        "he",
        "r"
      ],
      [
        "ou",
        "t"
      ],
      [
        "Ġn",
        "ot"
      ],
      [
        "Ġd",
        "o"
      ],
      [
        "om",
        "e"
      ],
      [
        "s",
        "e"
      ],
      [
        "Ġ",
        "very"
      ],
      [
        "l",
        "y"
      ],
      [
        "e",
        "nd"
      ],
      [
        "a",
        "ll"
      ],
      [
        "ou",
        "nd"
      ],
      [
        "Ġw",
        "h"
      ],
      [
        "Ġ",
        "k"
      ],
      [
        "im",
        "e"
      ],
      [
        "itt",
        "le"
      ],
      [
        "Ġt",
        "ime"
      ],
      [
        "a",
        "l"
      ],
      [
        "Ġl",
        "ittle"
      ],
      [
        "Ġn",
        "e"
      ],
      [
        "Ġ",
        "M"
      ],
      [
        "Ġthe",
        "re"
      ],
      [
        "h",
        "t"
      ],
      [
        "Ġ",
        "is"
      ],
      [
        "Ġhapp",
        "y"
      ],
      [
        "Ġb",
        "ig"
      ],
      [
        "ĠI",
        "t"
      ],
      [
        "Ġ",
        "re"
      ],
      [
        "Ġs",
        "m"
      ],
      [
        "Ġb",
        "ut"
      ],
      [
        "Ġsa",
        "w"
      ],
      [
        "Ġa",
        "n"
      ],
      [
        "r",
        "a"
      ],
      [
        "r",
        "y"
      ],
      [
        "ri",
        "end"
      ],
      [
        ".",
        "\""
      ],
      [
        "Ġf",
        "riend"
      ],
      [
        "Ġa",
        "s"
      ],
      [
        "a",
        "ck"
      ],
      [
        "On",
        "e"
      ],
      [
        "id",
        "e"
      ],
      [
        "a",
        "ke"
      ],
      [
        "u",
        "g"
      ],
      [
        "'",
        "t"
      ],
      [
        "!",
        "\""
      ],
      [
        "Ġl",
        "oo"
      ],
      [
        "Ġwe",
        "re"
      ],
      [
        "t",
        "er"
      ],
      [
        "v",
        "ed"
      ],
      [
        "Ġl",
        "o"
      ],
      [
        "o",
        "re"
      ],
      [
        "On",
        "ce"
      ],
      [
        "Ġs",
        "e"
      ],
      [
        "Ġto",
        "o"
      ],
      [
        "Ġh",
        "im"
      ],
      [
        "Ġb",
        "o"
      ],
      [
        "Ġg",
        "o"
      ],
      [
        "Ġa",
        "re"
      ],
      [
        "e",
        "c"
      ],
      [
        "ĠT",
        "im"
      ],
      [
        "Ġ",
        "j"
      ],
      [
        "Ġwant",
        "ed"
      ],
      [
        "ar",
        "d"
      ],
      [
        "il",
        "l"
      ],
      [
        "ir",
        "l"
      ],
      [
        "Ġthe",
        "m"
      ],
      [
        "Ġup",
        "on"
      ],
      [
        "Ġg",
        "irl"
      ],
      [
        "Ġthe",
        "ir"
      ],
      [
        "Ġ",
        "out"
      ],
      [
        "Ġa",
        "t"
      ],
      [
        "i",
        "nd"
      ],
      [
        "u",
        "r"
      ],
      [
        "Ġd",
        "id"
      ],
      [
        "w",
        "ay"
      ],
      [
        "f",
        "u"
      ],
      [
        "Ġs",
        "p"
      ],
      [
        "Ġ",
        "A"
      ],
      [
        "Ġc",
        "ould"
      ],
      [
        "Ġsm",
        "il"
      ],
      [
        "he",
        "n"
      ],
      [
        "Ġha",
        "ve"
      ],
      [
        "a",
        "in"
      ],
      [
        "he",
        "d"
      ],
      [
        "ar",
        "t"
      ],
      [
        "ĠB",
        "en"
      ],
      [
        "r",
        "om"
      ],
      [
        "Ġe",
        "x"
      ],
      [
        "Ġc",
        "an"
      ],
      [
        "Ġw",
        "ent"
      ],
      [
        "i",
        "c"
      ],
      [
        "Ġa",
        "r"
      ],
      [
        "l",
        "p"
      ],
      [
        "oo",
        "d"
      ],
      [
        "fu",
        "l"
      ],
      [
        "Ġfriend",
        "s"
      ],
      [
        "?",
        "\""
      ],
      [
        "h",
        "ing"
      ],
      [
        "Ġn",
        "am"
      ],
      [
        "Ġk",
        "n"
      ],
      [
        "Ġ",
        "J"
      ],
      [
        "ig",
        "ht"
      ],
      [
        "Ġhe",
        "lp"
      ],
      [
        "Ġs",
        "ay"
      ],
      [
        "Ġa",
        "ll"
      ],
      [
        "on",
        "e"
      ],
      [
        "u",
        "m"
      ],
      [
        "ar",
        "k"
      ],
      [
        "Ġb",
        "ack"
      ],
      [
        "Y",
        "ou"
      ],
      [
        "Ġf",
        "un"
      ],
      [
        "ĠT",
        "om"
      ],
      [
        "Ġc",
        "l"
      ],
      [
        "a",
        "re"
      ],
      [
        "Ġn",
        "o"
      ],
      [
        "Ġl",
        "e"
      ],
      [
        "o",
        "p"
      ],
      [
        "Ġs",
        "c"
      ],
      [
        "Ġnam",
        "ed"
      ],
      [
        "Ġa",
        "l"
      ],
      [
        "el",
        "t"
      ],
      [
        "ou",
        "g"
      ],
      [
        "Ġm",
        "an"
      ],
      [
        "Ġlo",
        "ved"
      ],
      [
        "s",
        "ide"
      ],
      [
        "Ġsmil",
        "ed"
      ],
      [
        "Ġ",
        "One"
      ],
      [
        "Ġto",
        "y"
      ],
      [
        "Ġli",
        "ke"
      ],
      [
        "i",
        "ck"
      ],
      [
        "Ġf",
        "elt"
      ],
      [
        "Ġas",
        "ked"
      ],
      [
        "Ġf",
        "e"
      ],
      [
        "Ġs",
        "ome"
      ],
      [
        "Ġse",
        "e"
      ],
      [
        "Ġloo",
        "ked"
      ],
      [
        "Ġm",
        "e"
      ],
      [
        "am",
        "e"
      ],
      [
        "Ġar",
        "ound"
      ],
      [
        "Ġr",
        "o"
      ],
      [
        "ĠTim",
        "my"
      ],
      [
        "om",
        "et"
      ],
      [
        "Ġ",
        "W"
      ],
      [
        "u",
        "re"
      ],
      [
        "Ġb",
        "r"
      ],
      [
        "Ġb",
        "ir"
      ],
      [
        "g",
        "et"
      ],
      [
        "i",
        "ce"
      ],
      [
        "Ġbo",
        "y"
      ],
      [
        "Ġw",
        "ould"
      ],
      [
        "on",
        "g"
      ],
      [
        "Ġst",
        "art"
      ],
      [
        "a",
        "s"
      ],
      [
        "Ġbir",
        "d"
      ],
      [
        "Ġs",
        "omet"
      ],
      [
        "ing",
        "s"
      ],
      [
        "Ġf",
        "a"
      ],
      [
        "ad",
        "e"
      ],
      [
        "Ġm",
        "ake"
      ],
      [
        "Ġa",
        "g"
      ],
      [
        "Ġwh",
        "at"
      ],
      [
        "Ġw",
        "or"
      ],
      [
        "d",
        "d"
      ],
      [
        "Ġ",
        "You"
      ],
      [
        ",",
        "\""
      ],
      [
        "Ġsay",
        "s"
      ],
      [
        "ĠB",
        "ut"
      ],
      [
        "k",
        "ing"
      ],
      [
        "Ġr",
        "an"
      ],
      [
        "Ġa",
        "way"
      ],
      [
        "ow",
        "n"
      ],
      [
        "get",
        "her"
      ],
      [
        "Ġt",
        "re"
      ],
      [
        "Ã",
        "¢"
      ],
      [
        "â",
        "Ĥ"
      ],
      [
        "âĤ",
        "¬"
      ],
      [
        "a",
        "g"
      ],
      [
        "ar",
        "ed"
      ],
      [
        "i",
        "e"
      ],
      [
        "ou",
        "d"
      ],
      [
        "Ġm",
        "ade"
      ],
      [
        "Ġstart",
        "ed"
      ],
      [
        "i",
        "f"
      ],
      [
        "Ġc",
        "ar"
      ],
      [
        "Ġto",
        "gether"
      ],
      [
        "Ġsomet",
        "hing"
      ],
      [
        "Ġc",
        "o"
      ],
      [
        "t",
        "her"
      ],
      [
        "Ġp",
        "ark"
      ],
      [
        "Ġsa",
        "d"
      ],
      [
        "Ġo",
        "ther"
      ],
      [
        "it",
        "ed"
      ],
      [
        "Ġp",
        "ut"
      ],
      [
        "Ġne",
        "w"
      ],
      [
        "Ġf",
        "rom"
      ],
      [
        "e",
        "ll"
      ],
      [
        "Ġh",
        "ug"
      ],
      [
        "Ġp",
        "r"
      ],
      [
        "b",
        "le"
      ],
      [
        "Ġag",
        "ain"
      ],
      [
        "oo",
        "k"
      ],
      [
        "Ġex",
        "c"
      ],
      [
        "a",
        "ch"
      ],
      [
        "Ġ",
        "L"
      ],
      [
        "Ġg",
        "ood"
      ],
      [
        "Ġh",
        "ome"
      ],
      [
        "Ġl",
        "a"
      ],
      [
        "Ġm",
        "u"
      ],
      [
        "s",
        "s"
      ],
      [
        "Ġw",
        "hen"
      ],
      [
        "Ġf",
        "l"
      ],
      [
        "ri",
        "ed"
      ],
      [
        "e",
        "p"
      ],
      [
        "Ġwh",
        "o"
      ],
      [
        "es",
        "t"
      ],
      [
        "Ġthe",
        "n"
      ],
      [
        "Ġf",
        "ound"
      ],
      [
        "Ġc",
        "h"
      ],
      [
        "Ġd",
        "ec"
      ],
      [
        "pp",
        "ed"
      ],
      [
        "h",
        "at"
      ],
      [
        "Ġg",
        "et"
      ],
      [
        "Ġwa",
        "l"
      ],
      [
        "Ġplay",
        "ing"
      ],
      [
        "q",
        "u"
      ],
      [
        "Ġs",
        "w"
      ],
      [
        "oug",
        "ht"
      ],
      [
        "n",
        "n"
      ],
      [
        "Ġli",
        "ked"
      ],
      [
        "u",
        "ck"
      ],
      [
        "Ġth",
        "ings"
      ],
      [
        "Ġ",
        "E"
      ],
      [
        "all",
        "y"
      ],
      [
        "p",
        "l"
      ],
      [
        "ou",
        "s"
      ],
      [
        "Ġg",
        "ot"
      ],
      [
        "Ġb",
        "l"
      ],
      [
        "Ġexc",
        "ited"
      ],
      [
        "r",
        "o"
      ],
      [
        "id",
        "ed"
      ],
      [
        "a",
        "ve"
      ],
      [
        "Ġc",
        "ame"
      ],
      [
        "ar",
        "a"
      ],
      [
        "Ġe",
        "very"
      ],
      [
        "Ġdec",
        "ided"
      ],
      [
        "Ġyou",
        "r"
      ],
      [
        "Ġdo",
        "g"
      ],
      [
        "ĠM",
        "om"
      ],
      [
        "a",
        "x"
      ],
      [
        "Ġsc",
        "ared"
      ],
      [
        "Ġ",
        "D"
      ],
      [
        "Ġon",
        "e"
      ],
      [
        "Ġd",
        "own"
      ],
      [
        "u",
        "st"
      ],
      [
        "Ġ",
        "v"
      ],
      [
        "Ġf",
        "ind"
      ],
      [
        "Ġc",
        "are"
      ],
      [
        "The",
        "y"
      ],
      [
        "nn",
        "a"
      ],
      [
        "ou",
        "se"
      ],
      [
        "a",
        "p"
      ],
      [
        "Ġbe",
        "c"
      ],
      [
        "is",
        "t"
      ],
      [
        "Ġth",
        "an"
      ],
      [
        "n",
        "y"
      ],
      [
        "Ġfe",
        "el"
      ],
      [
        "u",
        "e"
      ],
      [
        "Ġd",
        "ad"
      ],
      [
        "Ġa",
        "b"
      ],
      [
        "Ġw",
        "ill"
      ],
      [
        "Ġm",
        "y"
      ],
      [
        "ar",
        "n"
      ],
      [
        "Ġloo",
        "k"
      ],
      [
        "u",
        "dd"
      ],
      [
        "ou",
        "r"
      ],
      [
        "Ġg",
        "r"
      ],
      [
        "er",
        "s"
      ],
      [
        "Ġ",
        "ke"
      ],
      [
        "Ġg",
        "ra"
      ],
      [
        "u",
        "s"
      ],
      [
        "Ġdid",
        "n"
      ],
      [
        "way",
        "s"
      ],
      [
        "es",
        "s"
      ],
      [
        "Ġp",
        "o"
      ],
      [
        "Ġtoy",
        "s"
      ],
      [
        "Ġtoo",
        "k"
      ],
      [
        "f",
        "e"
      ],
      [
        "nd",
        "er"
      ],
      [
        "Ġab",
        "out"
      ],
      [
        "Ġb",
        "all"
      ],
      [
        "Ġal",
        "ways"
      ],
      [
        "Ġl",
        "ot"
      ],
      [
        "Ġmom",
        "my"
      ],
      [
        "ĠS",
        "am"
      ],
      [
        "an",
        "t"
      ],
      [
        "Ġkn",
        "e"
      ],
      [
        "b",
        "b"
      ],
      [
        "Ġtre",
        "e"
      ],
      [
        "is",
        "e"
      ],
      [
        "Ġout",
        "side"
      ],
      [
        "Ġ",
        "F"
      ],
      [
        "Ġth",
        "ought"
      ],
      [
        "it",
        "e"
      ],
      [
        "Ġm",
        "ore"
      ],
      [
        "Ġt",
        "a"
      ],
      [
        "en",
        "ed"
      ],
      [
        "Ġle",
        "arn"
      ],
      [
        "re",
        "t"
      ],
      [
        "Ġh",
        "o"
      ],
      [
        "c",
        "hed"
      ],
      [
        "Ġkn",
        "ow"
      ],
      [
        "ec",
        "i"
      ],
      [
        "Ġin",
        "t"
      ],
      [
        "g",
        "ed"
      ],
      [
        "Ġs",
        "or"
      ],
      [
        "Ġc",
        "at"
      ],
      [
        "Ġla",
        "ug"
      ],
      [
        "Ġt",
        "ake"
      ],
      [
        "Ġo",
        "ld"
      ],
      [
        "i",
        "ve"
      ],
      [
        "i",
        "a"
      ],
      [
        "ĠM",
        "ax"
      ],
      [
        "Ġsp",
        "eci"
      ],
      [
        "Ġspeci",
        "al"
      ],
      [
        "Ġkne",
        "w"
      ],
      [
        "Ġan",
        "y"
      ],
      [
        "Ġp",
        "e"
      ],
      [
        "udd",
        "en"
      ],
      [
        "f",
        "ter"
      ],
      [
        "Ġh",
        "ow"
      ],
      [
        "Ġsor",
        "ry"
      ],
      [
        "Ġt",
        "r"
      ],
      [
        "m",
        "a"
      ],
      [
        "in",
        "k"
      ],
      [
        "B",
        "ut"
      ],
      [
        "Ġsh",
        "ow"
      ],
      [
        "is",
        "h"
      ],
      [
        "udden",
        "ly"
      ],
      [
        "Ġr",
        "un"
      ],
      [
        "a",
        "u"
      ],
      [
        "Ġs",
        "l"
      ],
      [
        "Ġmu",
        "ch"
      ],
      [
        "Ġt",
        "w"
      ],
      [
        "Ġha",
        "nd"
      ],
      [
        "a",
        "nd"
      ],
      [
        "Ġo",
        "r"
      ],
      [
        "Ġh",
        "ouse"
      ],
      [
        "Ġo",
        "p"
      ],
      [
        "Ġm",
        "o"
      ],
      [
        "Ġwa",
        "ter"
      ],
      [
        "Ġs",
        "k"
      ],
      [
        "v",
        "en"
      ],
      [
        "Ġt",
        "ried"
      ],
      [
        "Ġint",
        "o"
      ],
      [
        "Ġs",
        "un"
      ],
      [
        "an",
        "k"
      ],
      [
        "Ġin",
        "side"
      ],
      [
        "T",
        "om"
      ],
      [
        "Ġcl",
        "o"
      ],
      [
        "at",
        "e"
      ],
      [
        "Ġto",
        "ld"
      ],
      [
        "Ġg",
        "ave"
      ],
      [
        "um",
        "p"
      ],
      [
        "ĠS",
        "ara"
      ],
      [
        "t",
        "y"
      ],
      [
        "Ġpr",
        "oud"
      ],
      [
        "Ġe",
        "ach"
      ],
      [
        "Ġ",
        "qu"
      ],
      [
        "Ġ",
        "en"
      ],
      [
        "ĠW",
        "e"
      ],
      [
        "Ġ",
        "if"
      ],
      [
        "Ġo",
        "ver"
      ],
      [
        "Ġro",
        "om"
      ],
      [
        "Ġcould",
        "n"
      ],
      [
        "Ġhe",
        "ard"
      ],
      [
        "a",
        "ce"
      ],
      [
        "Ġne",
        "ver"
      ],
      [
        "Ġe",
        "at"
      ],
      [
        "Ġth",
        "is"
      ],
      [
        "ĠA",
        "nna"
      ],
      [
        "Ġp",
        "ret"
      ],
      [
        "ot",
        "her"
      ],
      [
        "d",
        "y"
      ],
      [
        "ĠE",
        "very"
      ],
      [
        "au",
        "se"
      ],
      [
        "b",
        "y"
      ],
      [
        "a",
        "k"
      ],
      [
        "Ġplay",
        "ed"
      ],
      [
        "Ġp",
        "ick"
      ],
      [
        "i",
        "on"
      ],
      [
        "M",
        "om"
      ],
      [
        "et",
        "ter"
      ],
      [
        "Ġhug",
        "ged"
      ],
      [
        "Ġex",
        "pl"
      ],
      [
        "he",
        "re"
      ],
      [
        "g",
        "e"
      ],
      [
        "Ġc",
        "om"
      ],
      [
        "Ġg",
        "re"
      ],
      [
        "Ġj",
        "ust"
      ],
      [
        "Ġn",
        "ice"
      ],
      [
        "Ġbo",
        "x"
      ],
      [
        "Ġman",
        "y"
      ],
      [
        "Ġne",
        "ed"
      ],
      [
        "Ġwa",
        "t"
      ],
      [
        "ot",
        "h"
      ],
      [
        "Ġst",
        "r"
      ],
      [
        "s",
        "ed"
      ],
      [
        "Ġbec",
        "ause"
      ],
      [
        "Ġof",
        "f"
      ],
      [
        "il",
        "e"
      ],
      [
        "'",
        "m"
      ],
      [
        "g",
        "ry"
      ],
      [
        "Ġsm",
        "all"
      ],
      [
        "i",
        "z"
      ],
      [
        "Ġb",
        "u"
      ],
      [
        "v",
        "ing"
      ],
      [
        "Ġl",
        "ong"
      ],
      [
        "Ġj",
        "o"
      ],
      [
        "Ġs",
        "n"
      ],
      [
        "in",
        "e"
      ],
      [
        "Ġf",
        "o"
      ],
      [
        "im",
        "al"
      ],
      [
        "Ġan",
        "imal"
      ],
      [
        "Ġbe",
        "ar"
      ],
      [
        "Ġt",
        "ry"
      ],
      [
        "oug",
        "h"
      ],
      [
        "u",
        "c"
      ],
      [
        "or",
        "t"
      ],
      [
        "ur",
        "t"
      ],
      [
        "Ġlearn",
        "ed"
      ],
      [
        "Ġu",
        "nt"
      ],
      [
        "s",
        "el"
      ],
      [
        "il",
        "d"
      ],
      [
        "Ġlo",
        "ve"
      ],
      [
        "Ġunt",
        "il"
      ],
      [
        "ĠM",
        "ia"
      ],
      [
        "Ġk",
        "ind"
      ],
      [
        "f",
        "t"
      ],
      [
        "Ġb",
        "etter"
      ],
      [
        "Ġfl",
        "ow"
      ],
      [
        "ĠJ",
        "ack"
      ],
      [
        "H",
        "e"
      ],
      [
        "ĠA",
        "nd"
      ],
      [
        "Ġt",
        "e"
      ],
      [
        "Ġe",
        "nd"
      ],
      [
        "Ġ",
        "im"
      ],
      [
        "ur",
        "n"
      ],
      [
        "Ġd",
        "on"
      ],
      [
        "v",
        "es"
      ],
      [
        "Ġc",
        "le"
      ],
      [
        "Ġp",
        "u"
      ],
      [
        "Ġc",
        "all"
      ],
      [
        "Ġb",
        "est"
      ],
      [
        "ad",
        "y"
      ],
      [
        "ar",
        "s"
      ],
      [
        "re",
        "am"
      ],
      [
        "a",
        "ut"
      ],
      [
        "Ġa",
        "d"
      ],
      [
        "Y",
        "es"
      ],
      [
        "v",
        "ent"
      ],
      [
        "Ġfa",
        "st"
      ],
      [
        "Ġcare",
        "ful"
      ],
      [
        "ur",
        "p"
      ],
      [
        "ard",
        "en"
      ],
      [
        "Ġg",
        "arden"
      ],
      [
        "Ġ",
        "C"
      ],
      [
        "Ġbe",
        "aut"
      ],
      [
        "ĠJ",
        "o"
      ],
      [
        "Ġf",
        "i"
      ],
      [
        "T",
        "h"
      ],
      [
        "b",
        "er"
      ],
      [
        "Ġsk",
        "y"
      ],
      [
        "Ġthan",
        "ked"
      ],
      [
        "Ġb",
        "ra"
      ],
      [
        "Ġj",
        "ump"
      ],
      [
        "Ġe",
        "ven"
      ],
      [
        "i",
        "es"
      ],
      [
        "Ġl",
        "oud"
      ],
      [
        "a",
        "se"
      ],
      [
        "p",
        "t"
      ],
      [
        "Ġb",
        "y"
      ],
      [
        "ĠS",
        "o"
      ],
      [
        "Ġlaug",
        "hed"
      ],
      [
        "e",
        "m"
      ],
      [
        "ĠH",
        "er"
      ],
      [
        "Ġc",
        "he"
      ],
      [
        "in",
        "y"
      ],
      [
        "w",
        "n"
      ],
      [
        "sel",
        "f"
      ],
      [
        "Ġg",
        "l"
      ],
      [
        "ll",
        "y"
      ],
      [
        "Ġl",
        "ist"
      ],
      [
        "I",
        "t"
      ],
      [
        "Ġc",
        "ome"
      ],
      [
        "Ġbeaut",
        "i"
      ],
      [
        "Ġh",
        "ard"
      ],
      [
        "Ġst",
        "ill"
      ],
      [
        "Ġh",
        "urt"
      ],
      [
        "le",
        "w"
      ],
      [
        "Ġbeauti",
        "ful"
      ],
      [
        "Ġanimal",
        "s"
      ],
      [
        "Ġlot",
        "s"
      ],
      [
        "Ġf",
        "am"
      ],
      [
        "Ġwa",
        "y"
      ],
      [
        "Ġw",
        "o"
      ],
      [
        "Å",
        "ĵ"
      ],
      [
        "Ġr",
        "a"
      ],
      [
        "Ġu",
        "nder"
      ],
      [
        "ĠThe",
        "n"
      ],
      [
        "he",
        "s"
      ],
      [
        "Ġl",
        "et"
      ],
      [
        "Ġst",
        "ay"
      ],
      [
        "b",
        "e"
      ],
      [
        "ĠF",
        "rom"
      ],
      [
        "ec",
        "t"
      ],
      [
        "Ġb",
        "ad"
      ],
      [
        "n",
        "ing"
      ],
      [
        "c",
        "t"
      ],
      [
        "Ġsa",
        "fe"
      ],
      [
        "Ġco",
        "l"
      ],
      [
        "oo",
        "l"
      ],
      [
        "Ġc",
        "u"
      ],
      [
        "a",
        "st"
      ],
      [
        "Ġb",
        "oth"
      ],
      [
        "ĠH",
        "is"
      ],
      [
        "op",
        "le"
      ],
      [
        "o",
        "ck"
      ],
      [
        "k",
        "ay"
      ],
      [
        "Ġre",
        "m"
      ],
      [
        "Ġb",
        "ook"
      ],
      [
        "T",
        "im"
      ],
      [
        "Ġan",
        "gry"
      ],
      [
        "Ġli",
        "ved"
      ],
      [
        "is",
        "hed"
      ],
      [
        "Ġit",
        "s"
      ],
      [
        "Ġim",
        "p"
      ],
      [
        "re",
        "e"
      ],
      [
        "re",
        "ss"
      ],
      [
        "Ġtw",
        "o"
      ],
      [
        "Ġ",
        "Ã¢"
      ],
      [
        "Ġpe",
        "ople"
      ],
      [
        "an",
        "e"
      ],
      [
        "Ġbra",
        "ve"
      ],
      [
        "Ġfam",
        "ily"
      ],
      [
        "Ġsh",
        "ould"
      ],
      [
        "N",
        "o"
      ],
      [
        "Ġr",
        "ed"
      ],
      [
        "urp",
        "r"
      ],
      [
        "ig",
        "h"
      ],
      [
        "Ġwal",
        "ked"
      ],
      [
        "Ġs",
        "urpr"
      ],
      [
        "Ġf",
        "lew"
      ],
      [
        "Ġf",
        "in"
      ],
      [
        "Ġst",
        "or"
      ],
      [
        "Ġsh",
        "are"
      ],
      [
        "Ġd",
        "an"
      ],
      [
        "Ġso",
        "on"
      ],
      [
        "uc",
        "y"
      ],
      [
        "W",
        "hen"
      ],
      [
        "Ġf",
        "ly"
      ],
      [
        "o",
        "b"
      ],
      [
        "x",
        "t"
      ],
      [
        "Ġp",
        "ic"
      ],
      [
        "Ġdo",
        "ll"
      ],
      [
        "f",
        "ore"
      ],
      [
        "l",
        "ed"
      ],
      [
        "Ġke",
        "pt"
      ],
      [
        "Ġcall",
        "ed"
      ],
      [
        "i",
        "p"
      ],
      [
        "Ġf",
        "ore"
      ],
      [
        "B",
        "en"
      ],
      [
        "L",
        "et"
      ],
      [
        "Ġro",
        "ck"
      ],
      [
        "Ġcle",
        "an"
      ],
      [
        "Ġpret",
        "ty"
      ],
      [
        "is",
        "ed"
      ],
      [
        "Ġdo",
        "or"
      ],
      [
        "dd",
        "ed"
      ],
      [
        "Ġsh",
        "iny"
      ],
      [
        "Ġ",
        "P"
      ],
      [
        "ĠW",
        "hen"
      ],
      [
        "Ġgo",
        "ing"
      ],
      [
        "Ġke",
        "ep"
      ],
      [
        "Ġd",
        "ra"
      ],
      [
        "h",
        "n"
      ],
      [
        "Ġno",
        "ise"
      ],
      [
        "Ġn",
        "ow"
      ],
      [
        "Ġre",
        "al"
      ],
      [
        "Ġw",
        "ind"
      ],
      [
        "Ġop",
        "ened"
      ],
      [
        "Ġad",
        "vent"
      ],
      [
        "Ġt",
        "urn"
      ],
      [
        "um",
        "my"
      ],
      [
        "Ġ",
        "ide"
      ],
      [
        "ar",
        "y"
      ],
      [
        "s",
        "o"
      ],
      [
        "Ġc",
        "ry"
      ],
      [
        "Ġbe",
        "fore"
      ],
      [
        "Ġc",
        "on"
      ],
      [
        "ag",
        "e"
      ],
      [
        "Ġgr",
        "ound"
      ],
      [
        "Ġal",
        "so"
      ],
      [
        "Ġst",
        "o"
      ],
      [
        "le",
        "s"
      ],
      [
        "il",
        "ly"
      ],
      [
        "o",
        "on"
      ],
      [
        "Ġe",
        "y"
      ],
      [
        "Ġcol",
        "or"
      ],
      [
        "Ġexpl",
        "ore"
      ],
      [
        "i",
        "ed"
      ],
      [
        "Ġf",
        "ar"
      ],
      [
        "Ġha",
        "s"
      ],
      [
        "Ġide",
        "a"
      ],
      [
        "Ġf",
        "r"
      ],
      [
        "W",
        "hat"
      ],
      [
        "k",
        "es"
      ],
      [
        "im",
        "b"
      ],
      [
        "Ġwa",
        "r"
      ],
      [
        "t",
        "h"
      ],
      [
        "t",
        "ure"
      ],
      [
        "Ġu",
        "n"
      ],
      [
        "t",
        "hing"
      ],
      [
        "Ġne",
        "xt"
      ],
      [
        "Ġpick",
        "ed"
      ],
      [
        "Ġcl",
        "imb"
      ],
      [
        "u",
        "ch"
      ],
      [
        "Ġno",
        "dded"
      ],
      [
        "T",
        "hat"
      ],
      [
        "o",
        "y"
      ],
      [
        "ay",
        "be"
      ],
      [
        "Ġsmil",
        "e"
      ],
      [
        "Ġth",
        "r"
      ],
      [
        "Ġfeel",
        "ing"
      ],
      [
        "Ġtr",
        "uck"
      ],
      [
        "Ġwh",
        "ile"
      ],
      [
        "Ġb",
        "ed"
      ],
      [
        "ĠD",
        "ad"
      ],
      [
        "Ġwal",
        "king"
      ],
      [
        "T",
        "M"
      ],
      [
        "e",
        "et"
      ],
      [
        "Ġw",
        "r"
      ],
      [
        "Ġadvent",
        "ure"
      ],
      [
        "Th",
        "ank"
      ],
      [
        "g",
        "er"
      ],
      [
        "ĠL",
        "ucy"
      ],
      [
        "Ġpic",
        "ture"
      ],
      [
        "a",
        "c"
      ],
      [
        "Ġ",
        "G"
      ],
      [
        "Ġbe",
        "ing"
      ],
      [
        "Ġth",
        "ink"
      ],
      [
        "Ġg",
        "ive"
      ],
      [
        "Ġf",
        "ood"
      ],
      [
        "Ġm",
        "a"
      ],
      [
        "f",
        "f"
      ],
      [
        "ic",
        "ed"
      ],
      [
        "Ġt",
        "ra"
      ],
      [
        "Ġd",
        "if"
      ],
      [
        "Ġb",
        "re"
      ],
      [
        "p",
        "ot"
      ],
      [
        "j",
        "oy"
      ],
      [
        "Ġbr",
        "o"
      ],
      [
        "Ġto",
        "w"
      ],
      [
        "t",
        "ed"
      ],
      [
        "i",
        "ous"
      ],
      [
        "Ġlist",
        "en"
      ],
      [
        "Ġclo",
        "s"
      ],
      [
        "Ġey",
        "es"
      ],
      [
        "Ġwa",
        "it"
      ],
      [
        "ug",
        "ht"
      ],
      [
        "Ġo",
        "wn"
      ],
      [
        "Ġf",
        "ish"
      ],
      [
        "Ġsto",
        "pped"
      ],
      [
        "Ġa",
        "fter"
      ],
      [
        "Ġloo",
        "king"
      ],
      [
        "t",
        "ing"
      ],
      [
        "Ġflow",
        "ers"
      ],
      [
        "em",
        "ber"
      ],
      [
        "Ġd",
        "el"
      ],
      [
        "Ġwal",
        "k"
      ],
      [
        "Ġhand",
        "s"
      ],
      [
        "Ġbl",
        "ue"
      ],
      [
        "iz",
        "ed"
      ],
      [
        "S",
        "he"
      ],
      [
        "Ġsl",
        "ide"
      ],
      [
        "Ġsh",
        "out"
      ],
      [
        "Ġre",
        "pl"
      ],
      [
        "Ġgre",
        "at"
      ],
      [
        "Ġe",
        "ver"
      ],
      [
        "Ġme",
        "an"
      ],
      [
        "Ġen",
        "joy"
      ],
      [
        "Ġv",
        "o"
      ],
      [
        "Ġhe",
        "ad"
      ],
      [
        "ir",
        "st"
      ],
      [
        "il",
        "a"
      ],
      [
        "Ġr",
        "ain"
      ],
      [
        "ĠS",
        "uddenly"
      ],
      [
        "S",
        "uddenly"
      ],
      [
        "Ġne",
        "ar"
      ],
      [
        "Ġnot",
        "iced"
      ],
      [
        "Ġd",
        "is"
      ],
      [
        "Ġfore",
        "st"
      ],
      [
        "Ġu",
        "s"
      ],
      [
        "Ġas",
        "k"
      ],
      [
        "Ġimp",
        "ort"
      ],
      [
        "Ġqu",
        "ick"
      ],
      [
        "Ġrem",
        "ember"
      ],
      [
        "bb",
        "it"
      ],
      [
        "Ġs",
        "ound"
      ],
      [
        "Ġa",
        "pp"
      ],
      [
        "ll",
        "ow"
      ],
      [
        "Ġo",
        "kay"
      ],
      [
        "Ġd",
        "e"
      ],
      [
        "ma",
        "z"
      ],
      [
        "Ġwor",
        "k"
      ],
      [
        "Ġshow",
        "ed"
      ],
      [
        "Ġwo",
        "nder"
      ],
      [
        "Ġa",
        "maz"
      ],
      [
        "Ġt",
        "al"
      ],
      [
        "le",
        "ase"
      ],
      [
        "Ġst",
        "ick"
      ],
      [
        "Ġwat",
        "ch"
      ],
      [
        "Ġimport",
        "ant"
      ],
      [
        "bb",
        "ed"
      ],
      [
        "W",
        "e"
      ],
      [
        "by",
        "e"
      ],
      [
        "Ġstr",
        "ong"
      ],
      [
        "g",
        "an"
      ],
      [
        "Ġa",
        "c"
      ],
      [
        "A",
        "nna"
      ],
      [
        "Ġevery",
        "one"
      ],
      [
        "Ġbr",
        "ight"
      ],
      [
        "d",
        "ay"
      ],
      [
        "fe",
        "re"
      ],
      [
        "Ġra",
        "bbit"
      ],
      [
        "Ġdif",
        "fere"
      ],
      [
        "Ġbo",
        "at"
      ],
      [
        "Ġ",
        "our"
      ],
      [
        "Ġrepl",
        "ied"
      ],
      [
        "Ġs",
        "qu"
      ],
      [
        "Ġw",
        "here"
      ],
      [
        "Ġr",
        "ight"
      ],
      [
        "Ġfo",
        "llow"
      ],
      [
        "ĠS",
        "pot"
      ],
      [
        "Ġu",
        "se"
      ],
      [
        "Ġdo",
        "es"
      ],
      [
        "c",
        "o"
      ],
      [
        "Ġwat",
        "ched"
      ],
      [
        "a",
        "ble"
      ],
      [
        "Ġh",
        "op"
      ],
      [
        "Ġy",
        "ell"
      ],
      [
        "Ġfa",
        "ce"
      ],
      [
        "at",
        "h"
      ],
      [
        "Ġm",
        "or"
      ],
      [
        "Ġquick",
        "ly"
      ],
      [
        "ĠS",
        "ue"
      ],
      [
        "L",
        "ook"
      ],
      [
        "er",
        "ed"
      ],
      [
        "Ġst",
        "ore"
      ],
      [
        "Ġ",
        "N"
      ],
      [
        "Ġd",
        "ress"
      ],
      [
        "Ġs",
        "ure"
      ],
      [
        "Ġbe",
        "en"
      ],
      [
        "Ġbec",
        "ame"
      ],
      [
        "an",
        "ge"
      ],
      [
        "Ġpl",
        "ace"
      ],
      [
        "S",
        "ara"
      ],
      [
        "n",
        "g"
      ],
      [
        "Ġdiffere",
        "nt"
      ],
      [
        "Ġch",
        "ild"
      ],
      [
        "ĠMom",
        "my"
      ],
      [
        "Ġcu",
        "ri"
      ],
      [
        "a",
        "ught"
      ],
      [
        "Ġwar",
        "m"
      ],
      [
        "Ġy",
        "e"
      ],
      [
        "Ġgood",
        "bye"
      ],
      [
        "Ġa",
        "m"
      ],
      [
        "S",
        "o"
      ],
      [
        "Ġm",
        "ag"
      ],
      [
        "ĠB",
        "ob"
      ],
      [
        "Ġh",
        "igh"
      ],
      [
        "Ġvo",
        "ice"
      ],
      [
        "Ġ",
        "R"
      ],
      [
        "Ġfor",
        "g"
      ],
      [
        "Ġbl",
        "ock"
      ],
      [
        "Ġt",
        "ell"
      ],
      [
        "Ġc",
        "ake"
      ],
      [
        "m",
        "ore"
      ],
      [
        "Ġany",
        "more"
      ],
      [
        "le",
        "ep"
      ],
      [
        "nd",
        "ma"
      ],
      [
        "Ġclos",
        "er"
      ],
      [
        "Ġc",
        "ook"
      ],
      [
        "Ġcuri",
        "ous"
      ],
      [
        "it",
        "c"
      ],
      [
        "Ġfa",
        "v"
      ],
      [
        "Ġbe",
        "l"
      ],
      [
        "ou",
        "nt"
      ],
      [
        "Ġn",
        "ight"
      ],
      [
        "Ġpu",
        "ll"
      ],
      [
        "Ġop",
        "en"
      ],
      [
        "ir",
        "ed"
      ],
      [
        "im",
        "es"
      ],
      [
        "ĠT",
        "h"
      ],
      [
        "Ġle",
        "a"
      ],
      [
        "a",
        "ched"
      ],
      [
        "Ġp",
        "ain"
      ],
      [
        "is",
        "s"
      ],
      [
        "Ġf",
        "irst"
      ],
      [
        "Ġ",
        "z"
      ],
      [
        "H",
        "er"
      ],
      [
        "Ġbut",
        "ter"
      ],
      [
        "Ġhe",
        "re"
      ],
      [
        "Ġfe",
        "ll"
      ],
      [
        "Ġb",
        "us"
      ],
      [
        "Ġk",
        "id"
      ],
      [
        "u",
        "ll"
      ],
      [
        "Ġgra",
        "bbed"
      ],
      [
        "Ġr",
        "u"
      ],
      [
        "J",
        "o"
      ],
      [
        "Ġse",
        "es"
      ],
      [
        "C",
        "an"
      ],
      [
        "un",
        "ny"
      ],
      [
        "Ġsw",
        "eet"
      ],
      [
        "or",
        "n"
      ],
      [
        "Ġon",
        "ly"
      ],
      [
        "Ġfl",
        "o"
      ],
      [
        "itc",
        "hen"
      ],
      [
        "Ġk",
        "itchen"
      ],
      [
        "Ġth",
        "ree"
      ],
      [
        "Ġsa",
        "nd"
      ],
      [
        "Ġhelp",
        "ed"
      ],
      [
        "Ġbird",
        "s"
      ],
      [
        "Ġst",
        "op"
      ],
      [
        "Ġd",
        "r"
      ],
      [
        "Ġcon",
        "t"
      ],
      [
        "Ġc",
        "ra"
      ],
      [
        "Ġb",
        "it"
      ],
      [
        "Ġb",
        "a"
      ],
      [
        "Ġhapp",
        "ened"
      ],
      [
        "Ġjump",
        "ed"
      ],
      [
        "Ġgl",
        "ad"
      ],
      [
        "Ġfi",
        "re"
      ],
      [
        "Ġm",
        "on"
      ],
      [
        "pp",
        "y"
      ],
      [
        "Ġs",
        "ing"
      ],
      [
        "Ġbe",
        "h"
      ],
      [
        "Ġgra",
        "ss"
      ],
      [
        "Ġt",
        "ri"
      ],
      [
        "Ġp",
        "er"
      ],
      [
        "Ġc",
        "r"
      ],
      [
        "Ġbr",
        "other"
      ],
      [
        "Ġreal",
        "ized"
      ],
      [
        "ĠD",
        "o"
      ],
      [
        "A",
        "fter"
      ],
      [
        "is",
        "y"
      ],
      [
        "Ġstor",
        "y"
      ],
      [
        "Ġshout",
        "ed"
      ],
      [
        "a",
        "ir"
      ],
      [
        "Ġre",
        "ached"
      ],
      [
        "Ġm",
        "ess"
      ],
      [
        "Ġso",
        "ft"
      ],
      [
        "ak",
        "es"
      ],
      [
        "as",
        "s"
      ],
      [
        "ĠL",
        "et"
      ],
      [
        "Ġy",
        "ummy"
      ],
      [
        "Ġl",
        "ady"
      ],
      [
        "Ġg",
        "ame"
      ],
      [
        "in",
        "s"
      ],
      [
        "Ġha",
        "ving"
      ],
      [
        "nt",
        "s"
      ],
      [
        "Ġdra",
        "w"
      ],
      [
        "Ġat",
        "e"
      ],
      [
        "Ġh",
        "at"
      ],
      [
        "Ġpr",
        "in"
      ],
      [
        "ĠSara",
        "h"
      ],
      [
        "Ġpret",
        "end"
      ],
      [
        "z",
        "y"
      ],
      [
        "ĠEvery",
        "one"
      ],
      [
        "Ġp",
        "ap"
      ],
      [
        "Ġthr",
        "ough"
      ],
      [
        "Ġfav",
        "or"
      ],
      [
        "Ġunder",
        "st"
      ],
      [
        "'",
        "re"
      ],
      [
        "w",
        "here"
      ],
      [
        "Ġc",
        "re"
      ],
      [
        "ĠJ",
        "ane"
      ],
      [
        "Ġl",
        "ess"
      ],
      [
        "Ġre",
        "st"
      ],
      [
        "Ġfavor",
        "ite"
      ],
      [
        "Ġre",
        "ady"
      ],
      [
        "at",
        "er"
      ],
      [
        "ĠA",
        "s"
      ],
      [
        "Ġth",
        "ing"
      ],
      [
        "Ġlook",
        "s"
      ],
      [
        "k",
        "en"
      ],
      [
        "Ġma",
        "king"
      ],
      [
        "at",
        "her"
      ],
      [
        "ĠC",
        "an"
      ],
      [
        "Ġkid",
        "s"
      ],
      [
        "Ġmag",
        "ic"
      ],
      [
        "Ġre",
        "ally"
      ],
      [
        "Ġd",
        "uck"
      ],
      [
        "Ġp",
        "are"
      ],
      [
        "Ġt",
        "ired"
      ],
      [
        "Ġpo",
        "nd"
      ],
      [
        "Ġfi",
        "x"
      ],
      [
        "Ġcar",
        "s"
      ],
      [
        "Ġc",
        "ut"
      ],
      [
        "Ġwor",
        "ld"
      ],
      [
        "W",
        "ow"
      ],
      [
        "Ġd",
        "one"
      ],
      [
        "ĠT",
        "hat"
      ],
      [
        "Ġbe",
        "gan"
      ],
      [
        "Ġm",
        "um"
      ],
      [
        "Mom",
        "my"
      ],
      [
        "Ġb",
        "unny"
      ],
      [
        "Ġwa",
        "ved"
      ],
      [
        "b",
        "o"
      ],
      [
        "Ġhim",
        "self"
      ],
      [
        "Ġcat",
        "ch"
      ],
      [
        "Ġbutter",
        "f"
      ],
      [
        "Ġcom",
        "ing"
      ],
      [
        "Ġto",
        "uch"
      ],
      [
        "Ġfun",
        "ny"
      ],
      [
        "Ġc",
        "ried"
      ],
      [
        "Ġu",
        "sed"
      ],
      [
        "fu",
        "lly"
      ],
      [
        "Ġwor",
        "ry"
      ],
      [
        "Ġp",
        "art"
      ],
      [
        "Ġwh",
        "y"
      ],
      [
        "Ġp",
        "rom"
      ],
      [
        "u",
        "ff"
      ],
      [
        "Ġnam",
        "e"
      ],
      [
        "ig",
        "n"
      ],
      [
        "Ġblock",
        "s"
      ],
      [
        "Ġan",
        "other"
      ],
      [
        "Ġf",
        "ill"
      ],
      [
        "Ġst",
        "e"
      ],
      [
        "ĠJo",
        "e"
      ],
      [
        "Ġflow",
        "er"
      ],
      [
        "Ġp",
        "us"
      ],
      [
        "Ġho",
        "ld"
      ],
      [
        "Ġf",
        "ro"
      ],
      [
        "Ġha",
        "ir"
      ],
      [
        "Ġta",
        "st"
      ],
      [
        "Ġto",
        "p"
      ],
      [
        "Ġse",
        "en"
      ],
      [
        "Ġc",
        "ool"
      ],
      [
        "st",
        "er"
      ],
      [
        "one",
        "y"
      ],
      [
        "Ġsw",
        "im"
      ],
      [
        "re",
        "l"
      ],
      [
        "Ġw",
        "ished"
      ],
      [
        "s",
        "h"
      ],
      [
        "ed",
        "dy"
      ],
      [
        "i",
        "ver"
      ],
      [
        "Ġthan",
        "k"
      ],
      [
        "Ġm",
        "ouse"
      ],
      [
        "Ġflo",
        "or"
      ],
      [
        "Ġl",
        "ight"
      ],
      [
        "Ġgre",
        "en"
      ],
      [
        "Ġb",
        "ag"
      ],
      [
        "i",
        "ent"
      ],
      [
        "Ġdel",
        "ic"
      ],
      [
        "Ġli",
        "kes"
      ],
      [
        "Ġg",
        "i"
      ],
      [
        "Ġpap",
        "er"
      ],
      [
        "Ġsm",
        "ell"
      ],
      [
        "Ġfar",
        "m"
      ],
      [
        "h",
        "y"
      ],
      [
        "Tim",
        "my"
      ],
      [
        "Ġpare",
        "nts"
      ],
      [
        "A",
        "s"
      ],
      [
        "Ġbeh",
        "ind"
      ],
      [
        "at",
        "ion"
      ],
      [
        "o",
        "lly"
      ],
      [
        "Ġless",
        "on"
      ],
      [
        "Ġd",
        "ri"
      ],
      [
        "D",
        "on"
      ],
      [
        "Ġsurpr",
        "ise"
      ],
      [
        "Ġdo",
        "ing"
      ],
      [
        "Ġho",
        "pped"
      ],
      [
        "Ġd",
        "ro"
      ],
      [
        "Ġb",
        "ow"
      ],
      [
        "Ġwor",
        "ked"
      ],
      [
        "Ġs",
        "leep"
      ],
      [
        "Ġho",
        "le"
      ],
      [
        "ard",
        "s"
      ],
      [
        "ĠJo",
        "hn"
      ],
      [
        "S",
        "am"
      ],
      [
        "Ġwind",
        "ow"
      ],
      [
        "and",
        "y"
      ],
      [
        "Ġyell",
        "ow"
      ],
      [
        "Ġre",
        "ad"
      ],
      [
        "Ġtre",
        "es"
      ],
      [
        "Ġd",
        "ark"
      ],
      [
        "Ġd",
        "in"
      ],
      [
        "Ġf",
        "ull"
      ],
      [
        "Ġsh",
        "o"
      ],
      [
        "Ġlaug",
        "h"
      ],
      [
        "Ġrun",
        "ning"
      ],
      [
        "a",
        "isy"
      ],
      [
        "u",
        "ed"
      ],
      [
        "i",
        "ke"
      ],
      [
        "el",
        "y"
      ],
      [
        "Ġco",
        "ld"
      ],
      [
        "re",
        "n"
      ],
      [
        "Ġsw",
        "ing"
      ],
      [
        "re",
        "w"
      ],
      [
        "Ġs",
        "at"
      ],
      [
        "Ġsp",
        "ot"
      ],
      [
        "Ġw",
        "ood"
      ],
      [
        "u",
        "l"
      ],
      [
        "\"",
        "."
      ],
      [
        "Ġsurpr",
        "ised"
      ],
      [
        "Ġsl",
        "ow"
      ],
      [
        "Ġremember",
        "ed"
      ],
      [
        "ar",
        "ing"
      ],
      [
        "Ġbutterf",
        "ly"
      ],
      [
        "Ġhapp",
        "ily"
      ],
      [
        "Ġs",
        "et"
      ],
      [
        "Ġlo",
        "st"
      ],
      [
        "Ġ",
        "-"
      ],
      [
        "Ġneed",
        "ed"
      ],
      [
        "on",
        "s"
      ],
      [
        "Ġye",
        "ars"
      ],
      [
        "Ġ",
        "ice"
      ],
      [
        "ĠI",
        "n"
      ],
      [
        "Ġhe",
        "ld"
      ],
      [
        "Ġbu",
        "y"
      ],
      [
        "H",
        "ell"
      ],
      [
        "Hell",
        "o"
      ],
      [
        "Ġmo",
        "ve"
      ],
      [
        "Ġfro",
        "g"
      ],
      [
        "Ġany",
        "thing"
      ],
      [
        "Ġwr",
        "ong"
      ],
      [
        "Ġcare",
        "fully"
      ],
      [
        "u",
        "it"
      ],
      [
        "Ġsn",
        "ow"
      ],
      [
        "Jo",
        "hn"
      ],
      [
        "Ġhe",
        "ar"
      ],
      [
        "Ġle",
        "ft"
      ],
      [
        "Ġt",
        "all"
      ],
      [
        "Ġh",
        "un"
      ],
      [
        "en",
        "s"
      ],
      [
        "Ġper",
        "f"
      ],
      [
        "Ġd",
        "ir"
      ],
      [
        "Ġd",
        "ream"
      ],
      [
        "Ġfa",
        "ir"
      ],
      [
        "Ġfollow",
        "ed"
      ],
      [
        "Ġa",
        "ir"
      ],
      [
        "Ġenjoy",
        "ed"
      ],
      [
        "ĠL",
        "ila"
      ],
      [
        "TM",
        "s"
      ],
      [
        "Ġe",
        "l"
      ],
      [
        "Ġfin",
        "ished"
      ],
      [
        "Ġc",
        "ast"
      ],
      [
        "Ġchild",
        "ren"
      ],
      [
        "c",
        "ess"
      ],
      [
        "Ġb",
        "ug"
      ],
      [
        "Ġbook",
        "s"
      ],
      [
        "Ġh",
        "ot"
      ],
      [
        "Ġta",
        "ble"
      ],
      [
        "in",
        "ally"
      ],
      [
        "in",
        "ed"
      ],
      [
        "Ġher",
        "self"
      ],
      [
        "Ġh",
        "ill"
      ],
      [
        "Ġh",
        "id"
      ],
      [
        "re",
        "ed"
      ],
      [
        "ĠA",
        "fter"
      ],
      [
        "Ġar",
        "ri"
      ],
      [
        "Ġfriend",
        "ly"
      ],
      [
        "Ġunderst",
        "and"
      ],
      [
        "d",
        "s"
      ],
      [
        "Ġar",
        "m"
      ],
      [
        "Ġcont",
        "in"
      ],
      [
        "Ġclo",
        "se"
      ],
      [
        "Ġp",
        "lease"
      ],
      [
        "Ġforg",
        "ot"
      ],
      [
        "ro",
        "ss"
      ],
      [
        "Ġm",
        "ight"
      ],
      [
        "Ġcolor",
        "s"
      ],
      [
        "Ġel",
        "se"
      ],
      [
        "ĠBen",
        "ny"
      ],
      [
        "Ġdelic",
        "ious"
      ],
      [
        "Ġbro",
        "ken"
      ],
      [
        "Ġbu",
        "ild"
      ],
      [
        "Ġwant",
        "s"
      ],
      [
        "as",
        "ure"
      ],
      [
        "Ġre",
        "l"
      ],
      [
        "l",
        "f"
      ],
      [
        "as",
        "h"
      ],
      [
        "Ġg",
        "one"
      ],
      [
        "s",
        "p"
      ],
      [
        "Ġg",
        "ent"
      ],
      [
        "ie",
        "ld"
      ],
      [
        "O",
        "K"
      ],
      [
        "Ġba",
        "by"
      ],
      [
        "ro",
        "om"
      ],
      [
        "at",
        "ter"
      ],
      [
        "Ġarri",
        "ved"
      ],
      [
        "Ġcre",
        "at"
      ],
      [
        "Ġt",
        "ight"
      ],
      [
        "Ġa",
        "ble"
      ],
      [
        "ĠN",
        "ow"
      ],
      [
        "Ġlea",
        "ves"
      ],
      [
        "Ġs",
        "ong"
      ],
      [
        "Ġwonder",
        "ful"
      ],
      [
        "Ġsome",
        "one"
      ],
      [
        "The",
        "n"
      ],
      [
        "Ġy",
        "es"
      ],
      [
        "Ġwa",
        "ll"
      ],
      [
        "Ġsqu",
        "ir"
      ],
      [
        "n",
        "er"
      ],
      [
        "ĠS",
        "ally"
      ],
      [
        "Ġfill",
        "ed"
      ],
      [
        "a",
        "v"
      ],
      [
        "Ġcontin",
        "ued"
      ],
      [
        "i",
        "ch"
      ],
      [
        "ĠThe",
        "re"
      ],
      [
        "as",
        "k"
      ],
      [
        "Ġli",
        "on"
      ],
      [
        "Ġc",
        "ount"
      ],
      [
        "Ġbre",
        "ak"
      ],
      [
        "Ġsquir",
        "rel"
      ],
      [
        "Ġag",
        "reed"
      ],
      [
        "Ġj",
        "u"
      ],
      [
        "Ġp",
        "ink"
      ],
      [
        "ĠM",
        "aybe"
      ],
      [
        "Ġsc",
        "ary"
      ],
      [
        "Ġpo",
        "in"
      ],
      [
        "Ġf",
        "all"
      ],
      [
        "Ġen",
        "ough"
      ],
      [
        "F",
        "rom"
      ],
      [
        "ĠD",
        "aisy"
      ],
      [
        "e",
        "y"
      ],
      [
        "Ġcast",
        "le"
      ],
      [
        "ic",
        "y"
      ],
      [
        "ri",
        "es"
      ],
      [
        "e",
        "e"
      ],
      [
        "m",
        "an"
      ],
      [
        "Ġgra",
        "ndma"
      ],
      [
        "Ġv",
        "is"
      ],
      [
        "ĠE",
        "m"
      ],
      [
        "Ġstay",
        "ed"
      ],
      [
        "Ġhun",
        "gry"
      ],
      [
        "J",
        "ack"
      ],
      [
        "Ġm",
        "akes"
      ],
      [
        "Ġmom",
        "ent"
      ],
      [
        "Ġmor",
        "ning"
      ],
      [
        "Ġsmil",
        "es"
      ],
      [
        "'",
        "ll"
      ],
      [
        "Ġfin",
        "ally"
      ],
      [
        "Ġw",
        "et"
      ],
      [
        "Ġf",
        "ight"
      ],
      [
        "Ġcom",
        "p"
      ],
      [
        "Ġcook",
        "ies"
      ],
      [
        "Ġget",
        "ting"
      ],
      [
        "ou",
        "p"
      ],
      [
        "Ġturn",
        "ed"
      ],
      [
        "Ġsomet",
        "imes"
      ],
      [
        "g",
        "on"
      ],
      [
        "a",
        "pp"
      ],
      [
        "r",
        "ow"
      ],
      [
        "Ġpicture",
        "s"
      ],
      [
        "Ġp",
        "i"
      ],
      [
        "Ġtal",
        "k"
      ],
      [
        "Ġbe",
        "ach"
      ],
      [
        "r",
        "ot"
      ],
      [
        "Ġc",
        "ream"
      ],
      [
        "am",
        "a"
      ],
      [
        "ĠTom",
        "my"
      ],
      [
        "Ġclimb",
        "ed"
      ],
      [
        "ĠTh",
        "is"
      ],
      [
        "Ġother",
        "s"
      ],
      [
        "Ġtry",
        "ing"
      ],
      [
        "Ġcl",
        "ot"
      ],
      [
        "Ġball",
        "oon"
      ],
      [
        "Ġlist",
        "ened"
      ],
      [
        "o",
        "om"
      ],
      [
        "Ġ",
        "K"
      ],
      [
        "Ġdin",
        "ner"
      ],
      [
        "Ġamaz",
        "ing"
      ],
      [
        "Ġta",
        "il"
      ],
      [
        "Ġclot",
        "hes"
      ],
      [
        "c",
        "ed"
      ],
      [
        "Ġmu",
        "s"
      ],
      [
        "ĠW",
        "hat"
      ],
      [
        "Ġfe",
        "w"
      ],
      [
        "an",
        "ce"
      ],
      [
        "a",
        "pped"
      ],
      [
        "Ġm",
        "ar"
      ],
      [
        "Th",
        "is"
      ],
      [
        "Ġm",
        "et"
      ],
      [
        "Ġpu",
        "ppy"
      ],
      [
        "l",
        "c"
      ],
      [
        "A",
        "t"
      ],
      [
        "Ġm",
        "other"
      ],
      [
        "en",
        "ce"
      ],
      [
        "Ġdad",
        "dy"
      ],
      [
        "Ġperf",
        "ect"
      ],
      [
        "or",
        "ing"
      ],
      [
        "am",
        "p"
      ],
      [
        "Ġask",
        "s"
      ],
      [
        "Ġsp",
        "l"
      ],
      [
        "ĠB",
        "illy"
      ],
      [
        "ĠG",
        "ra"
      ],
      [
        "Ġwh",
        "ite"
      ],
      [
        "ĠJ",
        "en"
      ],
      [
        "ke",
        "y"
      ],
      [
        "r",
        "ed"
      ],
      [
        "Ġf",
        "ur"
      ],
      [
        "Ġal",
        "one"
      ],
      [
        "ct",
        "or"
      ],
      [
        "uff",
        "y"
      ],
      [
        "H",
        "is"
      ],
      [
        "Ġp",
        "et"
      ],
      [
        "Ġsa",
        "il"
      ],
      [
        "Ġwas",
        "n"
      ],
      [
        "uck",
        "y"
      ],
      [
        "Ġs",
        "it"
      ],
      [
        "Ġbr",
        "ought"
      ],
      [
        "Ġevery",
        "thing"
      ],
      [
        "Ġse",
        "ar"
      ],
      [
        "is",
        "ter"
      ],
      [
        "Ġpo",
        "l"
      ],
      [
        "d",
        "er"
      ],
      [
        "Ġjo",
        "y"
      ],
      [
        "O",
        "h"
      ],
      [
        "Ġgr",
        "ow"
      ],
      [
        "ot",
        "t"
      ],
      [
        "Ġro",
        "ll"
      ],
      [
        "Ġstr",
        "ange"
      ],
      [
        "Ġpull",
        "ed"
      ],
      [
        "at",
        "ed"
      ],
      [
        "Ġwa",
        "ited"
      ],
      [
        "Ġp",
        "ie"
      ],
      [
        "w",
        "l"
      ],
      [
        "Ġsp",
        "ark"
      ],
      [
        "Ġde",
        "ep"
      ],
      [
        "Ġr",
        "ide"
      ],
      [
        "ĠT",
        "o"
      ],
      [
        "Ġdan",
        "ger"
      ],
      [
        "Ġwood",
        "s"
      ],
      [
        "Ġpl",
        "an"
      ],
      [
        "Ġw",
        "on"
      ],
      [
        "Ġrun",
        "s"
      ],
      [
        "Ġle",
        "ave"
      ],
      [
        "Ġmus",
        "ic"
      ],
      [
        "m",
        "e"
      ],
      [
        "Ġthink",
        "s"
      ],
      [
        "Ġamaz",
        "ed"
      ],
      [
        "Ġvis",
        "it"
      ],
      [
        "z",
        "z"
      ],
[...]
